{
  "version": "1.0",
  "truncation": null,
  "padding": null,
  "added_tokens": [
    {
      "id": 0,
      "content": "<|endoftext|>",
      "single_word": false,
      "lstrip": false,
      "rstrip": false,
      "normalized": false,
      "special": true
    }
  ],
  "normalizer": null,
  "pre_tokenizer": {
    "type": "ByteLevel",
    "add_prefix_space": false,
    "trim_offsets": true,
    "use_regex": true
  },
  "post_processor": {
    "type": "ByteLevel",
    "add_prefix_space": true,
    "trim_offsets": false,
    "use_regex": true
  },
  "decoder": {
    "type": "ByteLevel",
    "add_prefix_space": true,
    "trim_offsets": true,
    "use_regex": true
  },
  "model": {
    "type": "BPE",
    "dropout": null,
    "unk_token": null,
    "continuing_subword_prefix": null,
    "end_of_word_suffix": null,
    "fuse_unk": false,
    "byte_fallback": false,
    "ignore_merges": false,
    "vocab": {
      "<|endoftext|>": 0,
      "!": 1,
      "$": 2,
      "%": 3,
      "&": 4,
      "'": 5,
      "(": 6,
      ")": 7,
      "*": 8,
      "+": 9,
      ",": 10,
      "-": 11,
      ".": 12,
      "/": 13,
      "0": 14,
      "1": 15,
      "2": 16,
      "3": 17,
      "4": 18,
      "5": 19,
      "6": 20,
      "7": 21,
      "8": 22,
      "9": 23,
      ":": 24,
      ";": 25,
      "=": 26,
      "?": 27,
      "@": 28,
      "A": 29,
      "B": 30,
      "C": 31,
      "D": 32,
      "E": 33,
      "F": 34,
      "G": 35,
      "H": 36,
      "I": 37,
      "J": 38,
      "K": 39,
      "L": 40,
      "M": 41,
      "N": 42,
      "O": 43,
      "P": 44,
      "Q": 45,
      "R": 46,
      "S": 47,
      "T": 48,
      "U": 49,
      "V": 50,
      "W": 51,
      "X": 52,
      "Y": 53,
      "Z": 54,
      "\\": 55,
      "^": 56,
      "`": 57,
      "a": 58,
      "b": 59,
      "c": 60,
      "d": 61,
      "e": 62,
      "f": 63,
      "g": 64,
      "h": 65,
      "i": 66,
      "j": 67,
      "k": 68,
      "l": 69,
      "m": 70,
      "n": 71,
      "o": 72,
      "p": 73,
      "q": 74,
      "r": 75,
      "s": 76,
      "t": 77,
      "u": 78,
      "v": 79,
      "w": 80,
      "x": 81,
      "y": 82,
      "z": 83,
      "~": 84,
      "¡": 85,
      "¢": 86,
      "£": 87,
      "¤": 88,
      "¥": 89,
      "¦": 90,
      "§": 91,
      "¨": 92,
      "©": 93,
      "ª": 94,
      "«": 95,
      "¬": 96,
      "®": 97,
      "¯": 98,
      "°": 99,
      "±": 100,
      "²": 101,
      "³": 102,
      "´": 103,
      "µ": 104,
      "¶": 105,
      "·": 106,
      "¸": 107,
      "¹": 108,
      "º": 109,
      "»": 110,
      "¼": 111,
      "½": 112,
      "¾": 113,
      "¿": 114,
      "Â": 115,
      "Ã": 116,
      "Ä": 117,
      "Å": 118,
      "Æ": 119,
      "Ç": 120,
      "È": 121,
      "É": 122,
      "Ê": 123,
      "Ë": 124,
      "Ì": 125,
      "Î": 126,
      "Ï": 127,
      "Ð": 128,
      "Ñ": 129,
      "Ò": 130,
      "Ô": 131,
      "Õ": 132,
      "Ö": 133,
      "×": 134,
      "Ø": 135,
      "Ù": 136,
      "Ú": 137,
      "Û": 138,
      "Ý": 139,
      "à": 140,
      "á": 141,
      "â": 142,
      "ã": 143,
      "ä": 144,
      "å": 145,
      "æ": 146,
      "ç": 147,
      "è": 148,
      "é": 149,
      "ê": 150,
      "ë": 151,
      "ì": 152,
      "í": 153,
      "ï": 154,
      "ð": 155,
      "Ċ": 156,
      "Ġ": 157,
      "Ģ": 158,
      "ģ": 159,
      "Ĥ": 160,
      "ĥ": 161,
      "Ħ": 162,
      "ħ": 163,
      "Ĩ": 164,
      "ĩ": 165,
      "Ī": 166,
      "ī": 167,
      "Ĭ": 168,
      "ĭ": 169,
      "Į": 170,
      "į": 171,
      "İ": 172,
      "ı": 173,
      "Ĳ": 174,
      "ĳ": 175,
      "Ĵ": 176,
      "ĵ": 177,
      "Ķ": 178,
      "ķ": 179,
      "ĸ": 180,
      "Ĺ": 181,
      "ĺ": 182,
      "Ļ": 183,
      "ļ": 184,
      "Ľ": 185,
      "ľ": 186,
      "Ŀ": 187,
      "ŀ": 188,
      "Ł": 189,
      "ł": 190,
      "Ń": 191,
      "Ø§": 192,
      "ÛĮ": 193,
      "Ø±": 194,
      "ÙĨ": 195,
      "ÙĪ": 196,
      "Ùĩ": 197,
      "Ø¯": 198,
      "Ùħ": 199,
      "ÙĦ": 200,
      "Øª": 201,
      "Ø³": 202,
      "Ø¨": 203,
      "ÙĬ": 204,
      "Ø§ÙĨ": 205,
      "Ú©": 206,
      "Ú¯": 207,
      "Ø´": 208,
      "Ø¯Ùĩ": 209,
      "âĢ": 210,
      "âĢĮ": 211,
      "Ø²": 212,
      "Ø§ÛĮ": 213,
      "Ù¾": 214,
      "Ø§Ø±": 215,
      "Ùģ": 216,
      "10": 217,
      "Ø§ÙĦ": 218,
      "12": 219,
      "ĠØ": 220,
      "ĠØ§": 221,
      "Ġ(": 222,
      "Ø±Ø¯Ùĩ": 223,
      "45": 224,
      "19": 225,
      "39": 226,
      "46": 227,
      "42": 228,
      "38": 229,
      "32": 230,
      "15": 231,
      "35": 232,
      "37": 233,
      "48": 234,
      "18": 235,
      "17": 236,
      "16": 237,
      "ĠØ¯": 238,
      "36": 239,
      "47": 240,
      "49": 241,
      "40": 242,
      "ÙĪØ±": 243,
      "ĠÙħ": 244,
      "Ø§Ø¯": 245,
      "Ø³Øª": 246,
      "ÙĤ": 247,
      "30": 248,
      "55": 249,
      "Ùĥ": 250,
      "ĠØ¨": 251,
      "20": 252,
      "ÙĪÙĨ": 253,
      "26": 254,
      "Ø¬": 255,
      "Û±": 256,
      "27": 257,
      "56": 258,
      "57": 259,
      "ÛĮÙĦ": 260,
      "Ø§Ùħ": 261,
      "58": 262,
      "59": 263,
      "50": 264,
      "29": 265,
      "ĠØ¯Ø±": 266,
      "Ø®": 267,
      "ÙĩØ§ÛĮ": 268,
      "28": 269,
      "60": 270,
      "Û±Û": 271,
      "ÛĮÙĨ": 272,
      "79": 273,
      "Ø±ÙĪ": 274,
      "ĠØ³": 275,
      "Ø§Ùĩ": 276,
      "ØŃ": 277,
      "11": 278,
      "Ø§Ø³": 279,
      "78": 280,
      "Ø§Ø¨": 281,
      "70": 282,
      "ÙĪÛĮ": 283,
      "Ø¹": 284,
      "Ø§Øª": 285,
      "68": 286,
      "69": 287,
      "ĠØ´": 288,
      "ÚĨ": 289,
      "Ø±ÛĮ": 290,
      "ĠÚ©": 291,
      "ĠØ¢": 292,
      "ĠÙ¾": 293,
      "ØĮ": 294,
      "80": 295,
      "34": 296,
      "Ú¯ÙĪ": 297,
      "ĠØª": 298,
      "90": 299,
      "Û²": 300,
      "Ø¢": 301,
      "Ø³ØªØ§ÙĨ": 302,
      "Û°": 303,
      "52": 304,
      "14": 305,
      "67": 306,
      "ÙĶ": 307,
      "88": 308,
      "ĠÛ±Û": 309,
      "Ø§Ø¯ÛĮ": 310,
      "ÙĩØ±": 311,
      "ÛĮØ§": 312,
      "99": 313,
      "33": 314,
      "ĠÙĨ": 315,
      "22": 316,
      "66": 317,
      "ĠÙĪ": 318,
      "44": 319,
      "ĠÙģ": 320,
      "Ø§ÙĬ": 321,
      "ÛĮÙĦØ§Ø¯ÛĮ": 322,
      "Ø§ÙĦÚ¯ÙĪ": 323,
      "77": 324,
      "ÙħÛĮÙĦØ§Ø¯ÛĮ": 325,
      "Ú©ÛĮ": 326,
      "13": 327,
      "Ø·": 328,
      "Ø§Ø²": 329,
      "ÙĪÙĦ": 330,
      "89": 331,
      "ĠØ¬": 332,
      "Ø³ÛĮ": 333,
      "ÙĨØ¯": 334,
      "00": 335,
      "ĠÙĩ": 336,
      "62": 337,
      "ÙĦÛĮ": 338,
      "87": 339,
      "25": 340,
      "43": 341,
      "ÙĬÙĨ": 342,
      "Ø¦": 343,
      "ÙĪØª": 344,
      "Ù¾Ø±": 345,
      "ĠØ¨Ø±": 346,
      "Ø§Ø±ÛĮ": 347,
      "98": 348,
      "ĠØ§Ø³": 349,
      "Ú¯Ø±": 350,
      "65": 351,
      "¹Û": 352,
      "97": 353,
      "41": 354,
      "Úĺ": 355,
      "Ø¨Ø±": 356,
      "ÙĨÛĮ": 357,
      "Ú¯Ø§Ùĩ": 358,
      "ĠØ§ÛĮ": 359,
      "ÙĬÙĦ": 360,
      "31": 361,
      "09": 362,
      "Ø²ÛĮ": 363,
      "21": 364,
      "ÙħØ§ÙĨ": 365,
      "ĠÛ²": 366,
      "ÙĪÙħ": 367,
      "Ø±Ø§ÙĨ": 368,
      "76": 369,
      "08": 370,
      "ÙĪÛĮÚ©ÛĮ": 371,
      "24": 372,
      "ĠÙĥ": 373,
      "23": 374,
      "ĠØ§Ùħ": 375,
      "Ø¯ÛĮ": 376,
      "Ø°": 377,
      "Øµ": 378,
      "Ø§Ø´": 379,
      "54": 380,
      "ÛĮÚ©": 381,
      "07": 382,
      "53": 383,
      "96": 384,
      "ÙĪÙĨØ¯Ùĩ": 385,
      "ĠÙĦ": 386,
      "86": 387,
      "ĠØ²": 388,
      "ĠØ§ÙĦ": 389,
      "Ù¾Ø±ÙĪÙĨØ¯Ùĩ": 390,
      "ÙĩØ§": 391,
      "51": 392,
      "Ø§ÛĮÛĮ": 393,
      "Ø¨ÛĮ": 394,
      "Ø¯Ø±": 395,
      "ÙħÙĪ": 396,
      "Øº": 397,
      "ÛĮÙĪ": 398,
      "ĠØ®": 399,
      "on": 400,
      "ÙĩØ±Ø³ØªØ§ÙĨ": 401,
      "ĠØ±": 402,
      "Û³": 403,
      "Ø¨Ø§Ø¯": 404,
      "Ø¯ÛĮØ§": 405,
      "ØªØ±": 406,
      "ÙĨÚ¯": 407,
      "06": 408,
      "ĠØ¹": 409,
      "Ø³ÙĬ": 410,
      "ĠÛ±Û¹Û": 411,
      "72": 412,
      "Ù¾Ø¯ÛĮØ§": 413,
      "Ø§Ø±Ùĩ": 414,
      "82": 415,
      "ÛĮØ¯": 416,
      "ĠÙĤ": 417,
      "Û´": 418,
      "Ø§ÙĦÛĮ": 419,
      "ÙĩÙĦ": 420,
      "ÙĪØ³": 421,
      "ĠÚ¯": 422,
      "ĠØŃ": 423,
      "Ø§Ú©": 424,
      "Ûµ": 425,
      "ĠÛ²Û°": 426,
      "Û¶": 427,
      "64": 428,
      "ĠØ§Ø²": 429,
      "Û¸": 430,
      "63": 431,
      "75": 432,
      "Ø§Ùģ": 433,
      "61": 434,
      "er": 435,
      "jp": 436,
      "Ø§ÙĪ": 437,
      "92": 438,
      "Û·": 439,
      "ØªÛĮ": 440,
      "85": 441,
      "jpg": 442,
      "ĠØ§ÙĩÙĦ": 443,
      "95": 444,
      "ÙħÙĨ": 445,
      "Ú¯Ø§ÙĨ": 446,
      "ÛĮØ±": 447,
      "Ø¨Ø§ÙĦ": 448,
      "02": 449,
      "ÙĦÙĬ": 450,
      "ÙģØª": 451,
      "74": 452,
      "Ø±ÙĬ": 453,
      "ÛĮÙĦÙħ": 454,
      "ÙĨÙĪ": 455,
      "ĠØ§ÙĨ": 456,
      "81": 457,
      "ÙĦÙĪ": 458,
      "ÛĮØ´": 459,
      "71": 460,
      "Ø±Ø¯": 461,
      "91": 462,
      "73": 463,
      "93": 464,
      "83": 465,
      "Ø§Ø±Ú©": 466,
      "ĠÚĨ": 467,
      "ÙĪØ±ÛĮ": 468,
      "Ø§ÙĨÙĩ": 469,
      "ÙĨØ§Ùħ": 470,
      "ÙĪØ¯": 471,
      "ÙĬØ¯": 472,
      "05": 473,
      "94": 474,
      "Ø§ÚĨ": 475,
      "Ø§ÙĨÛĮ": 476,
      "84": 477,
      "Ø¶": 478,
      "om": 479,
      "Ú¯Ø°": 480,
      "Ø§Ø±Ø¯": 481,
      "Ù¾Ùĩ": 482,
      "ÙĬÙĪ": 483,
      "Ø¸": 484,
      "Ø²Ùĩ": 485,
      "ĠØ´ÙĩØ±Ø³ØªØ§ÙĨ": 486,
      "Ø±Ùĩ": 487,
      "Ø§ÛĮÙĩ": 488,
      "ÙĩØ§Ùħ": 489,
      "ÙĪÙĨÛĮ": 490,
      "ÙħØ¯": 491,
      "ÙģÛĮÙĦÙħ": 492,
      "117": 493,
      "ÙĨØ§ÙħÙĩ": 494,
      "04": 495,
      "ÙĬÙĥ": 496,
      "an": 497,
      "ÙĨØ§Øª": 498,
      "Ø±ÙĪØ¯": 499,
      "Ø´Øª": 500,
      "Ø¹Ùĩ": 501,
      "at": 502,
      "ÙĪØ§": 503,
      "Ú©Ø§": 504,
      "115": 505,
      "118": 506,
      "03": 507,
      "Ú©ÙĪ": 508,
      "ÙĨØ§": 509,
      "Û¹": 510,
      "Ø²Ø´": 511,
      "ÙĬØª": 512,
      "ÙĦØ§": 513,
      "ÙħÙĩ": 514,
      "ĠÙ¾Ø§ÛĮÙĩ": 515,
      "ÙĪØªØ¨Ø§ÙĦ": 516,
      "Ø§Ø¨ÙĩØ§Ùħ": 517,
      "01": 518,
      "Ø´Ø¯Ùĩ": 519,
      "ÙħÛĮ": 520,
      "Ø¨Ø§Ø²": 521,
      "Ú¯Ø°Ø§Ø±ÛĮ": 522,
      "116": 523,
      "ÙĨØª": 524,
      "Ta": 525,
      "112": 526,
      "ĠØ´Ùħ": 527,
      "ÙĨÛĮØ§ÙĨ": 528,
      "Ø«": 529,
      "ØªÙ¾Ùĩ": 530,
      "ÙĬØ±": 531,
      "Ø§Ø±Ùĥ": 532,
      "ÙĤÙĨØ§Øª": 533,
      "119": 534,
      "ĠÙħØª": 535,
      "ÙħØ±ÛĮ": 536,
      "ĠØ§Ø±": 537,
      "ÙģØ±": 538,
      "omy": 539,
      "ÙĪØ¦": 540,
      "ĠØ±ÙĪ": 541,
      "ÙĪØ§ÙĨ": 542,
      "Ø§Ø¯Ùĩ": 543,
      "ĠØ´ÙĪØ±": 544,
      "xon": 545,
      "Taxon": 546,
      "Taxonomy": 547,
      "Ú¯ÛĮ": 548,
      "ĠÙģÙĪØªØ¨Ø§ÙĦ": 549,
      "or": 550,
      "Ú©Øª": 551,
      "107": 552,
      "ÙħÛĮÙĨ": 553,
      "ÙĦÙĩ": 554,
      "ÙĪØ±Ø´": 555,
      "Ø®Øª": 556,
      "108": 557,
      "Ø¯Ø§ÙĨ": 558,
      "st": 559,
      "in": 560,
      "ar": 561,
      "Ø±Ø§": 562,
      "100": 563,
      "ĠØ¯Ùĩ": 564,
      "ÛĮÙĩ": 565,
      "Ø§ÙĦÙĩ": 566,
      "ØªØ¨": 567,
      "ØªÙĪ": 568,
      "ÙħØŃ": 569,
      "ÙĤØ·": 570,
      "Ø±Ø¨": 571,
      "Ø§Ø³Øª": 572,
      "319": 573,
      "120": 574,
      "218": 575,
      "217": 576,
      "106": 577,
      "Ø¯Ø§ÛĮÛĮ": 578,
      "216": 579,
      "Ú©Ø§Ø±": 580,
      "109": 581,
      "215": 582,
      "345": 583,
      "347": 584,
      "Ø§ÙĩÛĮ": 585,
      "339": 586,
      "340": 587,
      "ÙĤÛĮ": 588,
      "Ø§Ùĥ": 589,
      "348": 590,
      "342": 591,
      "ĠØ§Ø³Øª": 592,
      "Ø³ÙĨ": 593,
      "ÙĤØ·Ø¹": 594,
      "336": 595,
      "346": 596,
      "Ø§Ø¬": 597,
      "ÙĤØ·Ø¹ÙĨØ§ÙħÙĩ": 598,
      "ÙĪØ±Ø²Ø´": 599,
      "Ø´ÙĩØ±Ø³ØªØ§ÙĨ": 600,
      "Ø³ÛĮØ§Ø±Ú©": 601,
      "Ø±Ø®": 602,
      "Ø®ÙĪØ±Ø´": 603,
      "448": 604,
      "al": 605,
      "238": 606,
      "447": 607,
      "Ø§ÙĨØª": 608,
      "Ø§Ù¾": 609,
      "Ø³ÙĬØ§Ø±Ùĥ": 610,
      "ĠØ§ÙĬ": 611,
      "ÛĮÙĪØ§Ø³": 612,
      "Ú¯Ø±ÙģØª": 613,
      "ĠÙħØªØŃ": 614,
      "ÙĬØ´": 615,
      "Ø¨Ùĩ": 616,
      "ÙħØ±": 617,
      "Ø³Ø§": 618,
      "450": 619,
      "Ø§ÙĦØ§Øª": 620,
      "Ù¾Ø±ÙĪ": 621,
      "428": 622,
      "Ø§ÙĨØ¯": 623,
      "128": 624,
      "129": 625,
      "432": 626,
      "Ø¢Ø¨Ø§Ø¯": 627,
      "138": 628,
      "Ø³ÙĪ": 629,
      "338": 630,
      "Ø¨ÙĨÛĮØ§ÙĨ": 631,
      "237": 632,
      "Ø³Ùĩ": 633,
      "190": 634,
      "ÙħØ§": 635,
      "ĠÙħØªØŃØ¯Ùĩ": 636,
      "239": 637,
      "446": 638,
      "ÙĬÙĩ": 639,
      "ĠÚĺ": 640,
      "Ø§Ø²ÛĮ": 641,
      "ÙĩØ±Ø³Øª": 642,
      "ĠÛ±Û¸": 643,
      "429": 644,
      "137": 645,
      "316": 646,
      "445": 647,
      "337": 648,
      "548": 649,
      "135": 650,
      "ÙĪÙ¾": 651,
      "449": 652,
      "110": 653,
      "127": 654,
      "546": 655,
      "130": 656,
      "ÙħÙ¾": 657,
      "Ø§ÛĮÙĨ": 658,
      "Ø±ÙĪØ¯Ú¯Ø§Ùĩ": 659,
      "ĠØ¯ÙĩÙĩ": 660,
      "240": 661,
      "ÙĪØ´": 662,
      "349": 663,
      "ÙĤØ§ÙĦÙĩ": 664,
      "Ø§Ø±Øª": 665,
      "ĠÛ²Û°Û±Û": 666,
      "ĠØ¨Ùĩ": 667,
      "ÙĬØ³": 668,
      "Ø§ÙĬÙĬ": 669,
      "me": 670,
      "ĠØ³ÛĮ": 671,
      "516": 672,
      "146": 673,
      "235": 674,
      "139": 675,
      "320": 676,
      "ÙģÙĩØ±Ø³Øª": 677,
      "438": 678,
      "426": 679,
      "435": 680,
      "430": 681,
      "427": 682,
      "ĠØ¢ÙħØ±ÛĮ": 683,
      "ÙĨØ±": 684,
      "149": 685,
      "ÙĬØ§": 686,
      "ĠØ¢ÙĦ": 687,
      "439": 688,
      "ĠÚ¯Ø±": 689,
      "Ù¾ÛĮ": 690,
      "547": 691,
      "ĠÙħØŃ": 692,
      "328": 693,
      "Ø§Ø³ÛĮ": 694,
      "Ø§Ø¨Ø§Ø¯": 695,
      "ÙĨÙĩ": 696,
      "Ø´Ø±": 697,
      "440": 698,
      "ĠØµ": 699,
      "Ú©Ø³": 700,
      "140": 701,
      "Ø¨Ø§ÙĨ": 702,
      "136": 703,
      "236": 704,
      "ĠÙĩØ§ÛĮ": 705,
      "ÛĮÙĨÚ¯": 706,
      "Ø§Ø¦": 707,
      "460": 708,
      "147": 709,
      "ÙĬÙĦØ§Ø¯": 710,
      "249": 711,
      "ÙģØ±ÙĪØ¯Ú¯Ø§Ùĩ": 712,
      "370": 713,
      "ĠÛĮ": 714,
      "318": 715,
      "ĠÙĪÛĮ": 716,
      "ÚĺÙĩ": 717,
      "220": 718,
      "ÙĪØ²": 719,
      "468": 720,
      "256": 721,
      "ĠØ¢Ø¨Ø§Ø¯": 722,
      "145": 723,
      "Ø¬ÛĮ": 724,
      "ĠØº": 725,
      "159": 726,
      "Ø³Ø±": 727,
      "ĠÙħØ±": 728,
      "Ú¯Ø²ÛĮ": 729,
      "ÙħØ¬": 730,
      "335": 731,
      "257": 732,
      "327": 733,
      "ÙĪÙĩ": 734,
      "517": 735,
      "Û¹Û": 736,
      "230": 737,
      "469": 738,
      "258": 739,
      "ÙĪØ¨": 740,
      "539": 741,
      "ÛĮØ§Ø¨": 742,
      "ÙĦÙĨØ¯": 743,
      "148": 744,
      "248": 745,
      "Ø³ÙĪÙĨ": 746,
      "160": 747,
      "630": 748,
      "458": 749,
      "247": 750,
      "Ø·ÙĤ": 751,
      "Ú¯ÙĦ": 752,
      "ĠØ§ÛĮØ±Ø§ÙĨ": 753,
      "255": 754,
      "538": 755,
      "540": 756,
      "Ø®Ø´": 757,
      "639": 758,
      "ĠÙħÛĮ": 759,
      "ÙĬÙħ": 760,
      "219": 761,
      "526": 762,
      "229": 763,
      "Ø¯ÙĨ": 764,
      "530": 765,
      "ÛĮÙĦÛĮ": 766,
      "ÙħÙĤØ§ÙĦÙĩ": 767,
      "459": 768,
      "Ø®Ø§ÙĨÙĩ": 769,
      "317": 770,
      "ÙĨØ¸": 771,
      "Ú¯ÙĬ": 772,
      "Ú©ÙĦ": 773,
      "535": 774,
      "158": 775,
      "Ø§ÙĤ": 776,
      "198": 777,
      "Ø¢ÙĦ": 778,
      "ĠÙĩØ§ÙĬ": 779,
      "420": 780,
      "Ø³Ú©": 781,
      "Ø¬Ø§ÙĨ": 782,
      "529": 783,
      "Ø§Ø³ØªØ§ÙĨ": 784,
      "528": 785,
      "369": 786,
      "126": 787,
      "418": 788,
      "en": 789,
      "ÙħÙĦ": 790,
      "Ø´ÙĩØ±": 791,
      "ĠÙħÛĮÙĦ": 792,
      "490": 793,
      "250": 794,
      "ÛĮØª": 795,
      "Ø²Ø¯Ø§ÛĮÛĮ": 796,
      "228": 797,
      "520": 798,
      "457": 799,
      "Ø§Ø±ÛĮØ®": 800,
      "132": 801,
      "ĠÛ²Û°Û°": 802,
      "437": 803,
      "456": 804,
      "388": 805,
      "417": 806,
      "150": 807,
      "ĠØ¨Ø±Ø§ÛĮ": 808,
      "397": 809,
      "168": 810,
      "199": 811,
      "ol": 812,
      "480": 813,
      "ÙĪÚ©": 814,
      "ĠÛ±Û¹": 815,
      "ÙģÙĦ": 816,
      "Û²Û°": 817,
      "527": 818,
      "ĠØ¯Ø±Ø³Øª": 819,
      "Ù¾Ø±ÙĪÚĺÙĩ": 820,
      "467": 821,
      "569": 822,
      "ØªØ¨Ø§Ùĩ": 823,
      "Ø§Ø´ØªØ¨Ø§Ùĩ": 824,
      "259": 825,
      "ÙħÙĪØ§Ø±Ø¯": 826,
      "ĠØ´ÙħØ§Ø±Ùĩ": 827,
      "499": 828,
      "Ø¬Ùĩ": 829,
      "142": 830,
      "267": 831,
      "518": 832,
      "436": 833,
      "ÙĨØ§ÙĨ": 834,
      "Ø§ÙĩØ§ÙĦÛĮ": 835,
      "Ø´ÙĨ": 836,
      "ĠØ³Ø¯Ùĩ": 837,
      "377": 838,
      "400": 839,
      "Ø²ÙħÛĮÙĨ": 840,
      "Ø¯ÙĪ": 841,
      "ĠÚ©ÙĦ": 842,
      "442": 843,
      "ĠÙħÙĨ": 844,
      "Ø¨ÙĪ": 845,
      "ĠØ§Ø¨Ø§Ø¯": 846,
      "350": 847,
      "ÙħØ§Ø±": 848,
      "419": 849,
      "ic": 850,
      "245": 851,
      "390": 852,
      "Ø¢Ø±": 853,
      "Ù¾ÛĮØ´": 854,
      "ĠÙ¾ÛĮØ´": 855,
      "489": 856,
      "ĠÙħÙĬÙĦØ§Ø¯": 857,
      "ÙĦØ§Ùħ": 858,
      "Ø³ÛĮÙĨ": 859,
      "ĠØªØ±": 860,
      "ou": 861,
      "Ø´ÛĮ": 862,
      "389": 863,
      "Ø²Ø±": 864,
      "ÙĬØ§ÙĨ": 865,
      "536": 866,
      "ĠØ§ÛĮØ§ÙĦØ§Øª": 867,
      "ion": 868,
      "379": 869,
      "ÙħØ³": 870,
      "412": 871,
      "359": 872,
      "ĠØ¬ÙĨÙĪ": 873,
      "315": 874,
      "470": 875,
      "570": 876,
      "ÙĪÛĮØ³": 877,
      "519": 878,
      "398": 879,
      "378": 880,
      "170": 881,
      "169": 882,
      "329": 883,
      "ĠÙħÛĮÙĦØ§Ø¯": 884,
      "387": 885,
      "189": 886,
      "650": 887,
      "180": 888,
      "326": 889,
      "es": 890,
      "210": 891,
      "549": 892,
      "ÙĨÛĮØª": 893,
      "542": 894,
      "380": 895,
      "it": 896,
      "479": 897,
      "368": 898,
      "620": 899,
      "515": 900,
      "ÙĬØ²": 901,
      "357": 902,
      "ÙħØ¨": 903,
      "197": 904,
      "ÙĨØ¯Ú¯Ø§ÙĨ": 905,
      "628": 906,
      "Ø±Ùħ": 907,
      "ĠØ¯ÛĮ": 908,
      "330": 909,
      "Ø¯Ø§Ø±": 910,
      "246": 911,
      "ØŃÙĦ": 912,
      "ĠØ¢ÙħØ±ÛĮÚ©Ø§": 913,
      "550": 914,
      "ĠÙĨÙĪ": 915,
      "399": 916,
      "ÙĤÙĦ": 917,
      "ĠÚ©Ø§Ø±": 918,
      "ÙģÛĮ": 919,
      "242": 920,
      "ng": 921,
      "212": 922,
      "358": 923,
      "Ø§Ø´Ú¯Ø§Ùĩ": 924,
      "Ø´Ú¯Ø§Ùĩ": 925,
      "410": 926,
      "478": 927,
      "Ø´ÙĪØ±": 928,
      "167": 929,
      "497": 930,
      "ÙĦÙĪÛĮ": 931,
      "179": 932,
      "ĠØ´ÙĪØ±Ø§ÛĮ": 933,
      "ÙĨØ¬": 934,
      "ĠØ§ÙĦÙħÙ¾": 935,
      "360": 936,
      "ÙĪØ±Ø¯": 937,
      "ÙĨØ¯Ùĩ": 938,
      "ta": 939,
      "157": 940,
      "537": 941,
      "Ú¯Ø²": 942,
      "477": 943,
      "Ġ19": 944,
      "488": 945,
      "ØªÙĪÙĨ": 946,
      "487": 947,
      "he": 948,
      "ĠØ¯ÙĪ": 949,
      "ost": 950,
      "ÙģÙĬÙĦ": 951,
      "Ú©ÙĨ": 952,
      "409": 953,
      "177": 954,
      "178": 955,
      "Ø¨ÙĬ": 956,
      "510": 957,
      "ĠØ¨ÛĮ": 958,
      "ĠÙĪÛĮÚ©ÛĮ": 959,
      "ÛĮÙĨÛĮ": 960,
      "580": 961,
      "ĠÙ¾Ø±": 962,
      "532": 963,
      "il": 964,
      "279": 965,
      "oc": 966,
      "ĠØ´ÙĩØ±": 967,
      "407": 968,
      "ÚĨÙĩ": 969,
      "498": 970,
      "ĠØ§ÙĪ": 971,
      "ĠØŃØ°": 972,
      "Ø±Ø²Ùĩ": 973,
      "ÙĨÙĬØª": 974,
      "260": 975,
      "ĠØ¢Ø±": 976,
      "Ø¨Ø§": 977,
      "618": 978,
      "ĠÙħÙĦÛĮ": 979,
      "416": 980,
      "367": 981,
      "200": 982,
      "590": 983,
      "196": 984,
      "ĠØ¨Ø§Ø²ÛĮ": 985,
      "Ø¯ÙĬ": 986,
      "396": 987,
      "545": 988,
      "209": 989,
      "ÙħØ§ÛĮ": 990,
      "600": 991,
      "Ø§ÙĦÙĬ": 992,
      "ĠØ³Ø±": 993,
      "ĠØ¨Ø±Ú¯Ø²ÛĮ": 994,
      "ĠØ§ÙħÙĨÛĮØª": 995,
      "ØªØ§ÙĨ": 996,
      "277": 997,
      "ĠÛ³": 998,
      "ĠØ¨Ø±Ú¯Ø²ÛĮØ¯Ùĩ": 999,
      "559": 1000,
      "476": 1001,
      "579": 1002,
      "268": 1003,
      "ÙĪÙĬ": 1004,
      "png": 1005,
      "270": 1006,
      "588": 1007,
      "ÙĪØ§ÙĩÛĮ": 1008,
      "Ø¨Ø§Ø²ÛĮÚ©": 1009,
      "ĠÙħÙĪ": 1010,
      "332": 1011,
      "269": 1012,
      "ĠØ§Ùģ": 1013,
      "ÙĨØ§ØŃ": 1014,
      "ĠØ¯Ø±Ø¨": 1015,
      "ĠØ¬Ùĩ": 1016,
      "ĠØ·": 1017,
      "188": 1018,
      "ĠØŃØ°Ùģ": 1019,
      "ĠØ´ÙĪØ±Ø§ÙĬ": 1020,
      "ĠP": 1021,
      "ÙĨÙĪÛĮØ³": 1022,
      "635": 1023,
      "599": 1024,
      "og": 1025,
      "Ø±Ø®ÙĪØ§ÙĩÛĮ": 1026,
      "ÙĨØ³": 1027,
      "408": 1028,
      "ĠØ§ÙħÙĨÙĬØª": 1029,
      "512": 1030,
      "Ø¯Ø§": 1031,
      "ÙĨØ¸Ø±Ø®ÙĪØ§ÙĩÛĮ": 1032,
      "Ø¨Ø®Ø´": 1033,
      "629": 1034,
      "ĠÙĨÛĮ": 1035,
      "300": 1036,
      "oster": 1037,
      "ÙĪÙģ": 1038,
      "366": 1039,
      "ĠØ¨Ø§": 1040,
      "ĠØ¯Ø±Ø¨Ø§Ø±Ùĩ": 1041,
      "558": 1042,
      "560": 1043,
      "ÛĮØ§ÙĨ": 1044,
      "568": 1045,
      "310": 1046,
      "187": 1047,
      "307": 1048,
      "278": 1049,
      "232": 1050,
      "589": 1051,
      "466": 1052,
      "Ø¨Ø¯": 1053,
      "ÙħÙĪØ¹Ùĩ": 1054,
      "556": 1055,
      "567": 1056,
      "Ú¯Ø±ÙģØªÚ¯ÛĮ": 1057,
      "Ø³ÛĮØ§": 1058,
      "496": 1059,
      "Ú©Ø§ÙĨ": 1060,
      "ØªÙĨ": 1061,
      "ĠØ¯ÙĪØ±": 1062,
      "Ø®ÙĪØ±Ø´ÛĮØ¯": 1063,
      "Ø®Ùĩ": 1064,
      "577": 1065,
      "578": 1066,
      "ĠØ§Ø³ØªØ§ÙĨ": 1067,
      "ĠØ±ÛĮ": 1068,
      "312": 1069,
      "Ø®ÙĪØ±Ø´ÙĬØ¯": 1070,
      "ĠÛ±": 1071,
      "208": 1072,
      "298": 1073,
      "598": 1074,
      "Ú¯Ø±ÙģØªÚ¯ÙĬ": 1075,
      "557": 1076,
      "Ø®ÙĪØ±Ø´ÛĮØ¯Ú¯Ø±ÙģØªÚ¯ÛĮ": 1077,
      "597": 1078,
      "ÙĦÙĪÛĮØ²ÛĮ": 1079,
      "587": 1080,
      "309": 1081,
      "308": 1082,
      "Ø®ÙĪØ±Ø´ÙĬØ¯Ú¯Ø±ÙģØªÚ¯ÙĬ": 1083,
      "ÛĮØ³": 1084,
      "376": 1085,
      "500": 1086,
      "609": 1087,
      "ÙģÙĬÙĦÙħ": 1088,
      "Ø¬Ø±": 1089,
      "ÙħÙĪÙĨ": 1090,
      "ÙĬÙĪØ§Ø³": 1091,
      "Ø§ÙĦØª": 1092,
      "ÙħØ¹": 1093,
      "297": 1094,
      "176": 1095,
      "Ø§Ø±ÙĬ": 1096,
      "ÙĪØ±Øª": 1097,
      "nt": 1098,
      "156": 1099,
      "ÙħØ¬ÙħÙĪØ¹Ùĩ": 1100,
      "186": 1101,
      "Ġp": 1102,
      "Ø´Ø±Ú©Øª": 1103,
      "486": 1104,
      "ÙħØª": 1105,
      "299": 1106,
      "226": 1107,
      "Ú©Ø±": 1108,
      "356": 1109,
      "ĠÚ¯ÙĪ": 1110,
      "ĠÛ±Û·": 1111,
      "798": 1112,
      "ĠS": 1113,
      "608": 1114,
      "Ø²ÙĪ": 1115,
      "406": 1116,
      "Ø³Ø§Ø®Øª": 1117,
      "607": 1118,
      "ia": 1119,
      "ĠÙĩØ§": 1120,
      "Ø³Ø§ÙĨ": 1121,
      "Ø§Ø²Ùĩ": 1122,
      "ĠÙĨØ³": 1123,
      "ĠØ§ÙĦÙħÙ¾ÛĮÚ©": 1124,
      "ĠÙĦÛĮ": 1125,
      "709": 1126,
      "ĠØªØ§Ø¨": 1127,
      "ÙĪØ·": 1128,
      "Ø¯ÙĪØ±": 1129,
      "276": 1130,
      "Ø¨Ø§Ø±": 1131,
      "ĠÙ¾ÙĬØ´": 1132,
      "386": 1133,
      "ĠÛ±Û³": 1134,
      "âĢĵ": 1135,
      "ĠØ´Ø±": 1136,
      "166": 1137,
      "Ġ20": 1138,
      "ĠC": 1139,
      "ÛĮÙĨÙĩ": 1140,
      "415": 1141,
      "790": 1142,
      "ÙĦØ³": 1143,
      "Û±Û¸": 1144,
      "509": 1145,
      "508": 1146,
      "ĠÛ±Û¹Û¸": 1147,
      "ĠØ¯Ø§ÙĨ": 1148,
      "799": 1149,
      "ĠØ¨Ø±ÛĮ": 1150,
      "ata": 1151,
      "Ø¨Ø±ÛĮ": 1152,
      "ÙĥÙĬ": 1153,
      "214": 1154,
      "690": 1155,
      "Ġd": 1156,
      "el": 1157,
      "ÙħØŃÙħØ¯": 1158,
      "Ġc": 1159,
      "ÙĪÙ¾Ø§": 1160,
      "596": 1161,
      "ĠØ§Øª": 1162,
      "789": 1163,
      "ĠØ¬ÙĨÙĪØ¨ÛĮ": 1164,
      "ation": 1165,
      "ĠØ¨ÙĨ": 1166,
      "Ø·ÙĨ": 1167,
      "ĠÙħØ±Ø¯": 1168,
      "Ø®Ø§Ø¨": 1169,
      "ĠÙģØ±Ø§ÙĨ": 1170,
      "287": 1171,
      "787": 1172,
      "Ø¨Ø§Ø²ÛĮ": 1173,
      "ÙĥØ§": 1174,
      "is": 1175,
      "ĠØªÙĦÙĪÛĮØ²ÛĮ": 1176,
      "227": 1177,
      "Ø³ØªØ§ÙĨÛĮ": 1178,
      "566": 1179,
      "meta": 1180,
      "ÙĪØªØ§": 1181,
      "ĠØ³ÙĬ": 1182,
      "280": 1183,
      "ÙĪÙĪ": 1184,
      "ma": 1185,
      "Ø§ÙħØ¨Ø±": 1186,
      "Ø§Ø±Ø§ÙĨ": 1187,
      "ĠÙĨØ³Ø®Ùĩ": 1188,
      "306": 1189,
      "Ø¶ÛĮ": 1190,
      "ÙħÙĨØ§": 1191,
      "Ø´Ùĩ": 1192,
      "Ø§ØŃ": 1193,
      "Ø¨ÙĪØ±": 1194,
      "252": 1195,
      "ÙĦÙħ": 1196,
      "Ø±Ø§Ø¯": 1197,
      "Ø§ÙħØ§": 1198,
      "Ø§ÙħÛĮ": 1199,
      "ÙģÙĦØ§ÛĮÙĨ": 1200,
      "ĠØ¢ÙģÙĦØ§ÛĮÙĨ": 1201,
      "506": 1202,
      "Ø´Ùħ": 1203,
      "207": 1204,
      "266": 1205,
      "Ø¯Ø±Ú¯Ø§Ùĩ": 1206,
      "us": 1207,
      "Ø§Ø¹": 1208,
      "ĠØ³Ø§ÙĦ": 1209,
      "ÙħÙĩÙĪØ±ÛĮ": 1210,
      "ĠØªÙĦÙĪÛĮØ²ÛĮÙĪÙĨÛĮ": 1211,
      "Ø§Ø®": 1212,
      "ĠØ¨ÙĦ": 1213,
      "ÙħÙĨØ§Ø·ÙĤ": 1214,
      "Û±Û°": 1215,
      "ØµÙģ": 1216,
      "ĠØ³Ùģ": 1217,
      "Ø±ÙĪØ²": 1218,
      "id": 1219,
      "507": 1220,
      "Ø²Ø§Ø¯": 1221,
      "797": 1222,
      "Ø¨ÙĪÙħ": 1223,
      "699": 1224,
      "Ø¨Ø§Ø´Ú¯Ø§Ùĩ": 1225,
      "ĠØ´ÙħØ§ÙĦÛĮ": 1226,
      "680": 1227,
      "707": 1228,
      "780": 1229,
      "ÙĨØ§ØŃÛĮÙĩ": 1230,
      "576": 1231,
      "Ø§Ø¨Ø±": 1232,
      "Ø³ÙĦ": 1233,
      "ÙĪØ±ÙĬ": 1234,
      "re": 1235,
      "ÙħØ§ÙĨÛĮ": 1236,
      "ĠÛ±Û¹Û·": 1237,
      "Ø±Ø§ÙĨÙĩ": 1238,
      "788": 1239,
      "ÙħÙĬÙĨ": 1240,
      "ĠØ²Ø¯": 1241,
      "689": 1242,
      "Ø±Ø§Ùģ": 1243,
      "296": 1244,
      "ĠÚ©Ø§ÙĨ": 1245,
      "Ø³Ø§Ø²": 1246,
      "Ø§Ú¯": 1247,
      "of": 1248,
      "ĠØ¬Ø§Ùħ": 1249,
      "Ø³ØªØ±": 1250,
      "ĠØªØ§Ø±ÛĮØ®": 1251,
      "586": 1252,
      "Ø¨ÙĦ": 1253,
      "700": 1254,
      "Ø´Ø§Ùĩ": 1255,
      "Ø§ÛĮØ±": 1256,
      "ØµØ±": 1257,
      "ĠÛ±Û¶": 1258,
      "ĠØ¨ÙĨÛĮØ§ÙĨ": 1259,
      "Ø¹ÙĦÛĮ": 1260,
      "ĠØ³ÙĪ": 1261,
      "ÙģØ±ÛĮ": 1262,
      "Ø§ÙĨÙĬ": 1263,
      "ĠA": 1264,
      "Ø³ÛĮÙĤÛĮ": 1265,
      "ØªØ§": 1266,
      "Ø¯ÙĩØ§ÛĮ": 1267,
      "ĠÙħÙĩ": 1268,
      "708": 1269,
      "289": 1270,
      "Ø³Ø§Ø®ØªÙħØ§ÙĨ": 1271,
      "Ø§ÙĦÛĮØ§": 1272,
      "ĠØªÛĮ": 1273,
      "ĠØ¨Ø§Ø²": 1274,
      "Ø§ÙĨÙĪ": 1275,
      "ÙģØ±ÙĨ": 1276,
      "ĠØ§Ø±ÙĪÙ¾Ø§": 1277,
      "ĠÙģØ±": 1278,
      "le": 1279,
      "ÙĪÙĨÚ¯": 1280,
      "ÙĦÛĮÙĨ": 1281,
      "Ø§ÙĦØ¯": 1282,
      "ĠÙħØ§Ø±": 1283,
      "ĠÙĪØ·ÙĨ": 1284,
      "ĠÚ©Ø´ÙĪØ±": 1285,
      "908": 1286,
      "ogo": 1287,
      "ad": 1288,
      "796": 1289,
      "677": 1290,
      "ÙĥÙĦ": 1291,
      "698": 1292,
      "ry": 1293,
      "434": 1294,
      "ĠÛ´": 1295,
      "288": 1296,
      "Ø¢Ø¨": 1297,
      "ÙĪÙĨØ¯": 1298,
      "Ø§ÙĨÚ¯": 1299,
      "Ġ-": 1300,
      "Ø§ÙĪØ±": 1301,
      "ĠØ´Ø¯Ùĩ": 1302,
      "Ù¾ÙĦ": 1303,
      "ĠØ²Ø¯Ø§ÛĮÛĮ": 1304,
      "ĠØ§ÙĨØª": 1305,
      "ĠØ²Ø¯Ø§ÙĬÙĬ": 1306,
      "206": 1307,
      "808": 1308,
      "ÙĨÙĬ": 1309,
      "ĠÛ±Û¹Û¶": 1310,
      "290": 1311,
      "Û±Û³": 1312,
      "ÙĥÙĪ": 1313,
      "Ø±Ø¨ÛĮ": 1314,
      "ÙĬÙĨÚ¯": 1315,
      "411": 1316,
      "ÙĪÙĤ": 1317,
      "ØªØ±Ø§ÙĨÙĩ": 1318,
      "697": 1319,
      "606": 1320,
      "Ø³Ùģ": 1321,
      "687": 1322,
      "800": 1323,
      "809": 1324,
      "ĠØ§ÙĪØ±": 1325,
      "ĠÛµ": 1326,
      "ot": 1327,
      "ov": 1328,
      "ra": 1329,
      "ĠÛ±Û¹Û¹Û": 1330,
      "688": 1331,
      "Ù¾Ø§ÙĨ": 1332,
      "134": 1333,
      "ĠÙħØ¬": 1334,
      "645": 1335,
      "ĠM": 1336,
      "ÙĪØ³Øª": 1337,
      "ĠÚ©ÙĨ": 1338,
      "ØªÙĪØ±": 1339,
      "Ġl": 1340,
      "ĠØ¹ÙĦ": 1341,
      "ĠØ¨ÛĮÙĨ": 1342,
      "909": 1343,
      "Ø¬ÙĪ": 1344,
      "ĠÙĦØ±Ø²Ùĩ": 1345,
      "Ø·ÙĤÙĩ": 1346,
      "Ġt": 1347,
      "ÙĤÙĦØ¹Ùĩ": 1348,
      "Ø²ÙĬ": 1349,
      "ØªÙĦ": 1350,
      "Ø²Ø±Ú¯": 1351,
      "ĠØªÙĪ": 1352,
      "706": 1353,
      "ÙĪÙĦÛĮ": 1354,
      "133": 1355,
      "Ø²Ø¨Ø§ÙĨ": 1356,
      "286": 1357,
      "Ø±ÙĪÙĩ": 1358,
      "Ø¨Ø§Ø²ÛĮÚ©ÙĨ": 1359,
      "ount": 1360,
      "676": 1361,
      "ĠÚ©Ø§Ùħ": 1362,
      "Ø²Ø§Ø¯Ùĩ": 1363,
      "ÙĩÙĨ": 1364,
      "ÙĪØ·Ùĩ": 1365,
      "Ø§Ø¯Ø§": 1366,
      "ĠØ¯ÙĬ": 1367,
      "ĠØ²ÙĨ": 1368,
      "Ú¯ÙĨ": 1369,
      "ĠÙħØ¹": 1370,
      "Ġof": 1371,
      "Ø«Ø§Ø±": 1372,
      "ØªØ§Ø±ÛĮØ®": 1373,
      "ĠÙģÙĦ": 1374,
      "ĠÙħØ³Ú©": 1375,
      "ĠÙ¾ÛĮ": 1376,
      "Ø¯Ø§ÙĨØ´Ú¯Ø§Ùĩ": 1377,
      "ØŃØ§Øª": 1378,
      "ĠÙĬ": 1379,
      "Ø´ØªÛĮ": 1380,
      "ĠÙħØŃÙħØ¯": 1381,
      "Ø§ÛĮØª": 1382,
      "900": 1383,
      "ĠÛ¶": 1384,
      "Ø§Ø±Ø§": 1385,
      "ĠÛ±Ûµ": 1386,
      "Û°Û°": 1387,
      "ØŃÙĦØ§ÙĦ": 1388,
      "od": 1389,
      "ÙħØŃÙĪØ·Ùĩ": 1390,
      "ÙĪÚĨ": 1391,
      "ĠÙĩÙĨØ¯": 1392,
      "and": 1393,
      "ĠÙħØ³Ú©ÙĪÙĨÛĮ": 1394,
      "514": 1395,
      "311": 1396,
      "am": 1397,
      "ÙĪÙĨØ§": 1398,
      "op": 1399,
      "ĠÙĪØ±Ø²Ø´": 1400,
      "olor": 1401,
      "ÙģØ±Ø§ÙĨ": 1402,
      "as": 1403,
      "ĠÙħÚ©": 1404,
      "807": 1405,
      "ÙĪÙĨØª": 1406,
      "234": 1407,
      "648": 1408,
      "Ġposter": 1409,
      "610": 1410,
      "Ø¨Ú©": 1411,
      "Ú©Ø§Ø±Ø§ÙĨ": 1412,
      "ĠÙħÙĦ": 1413,
      "ĠÙĨÚ¯": 1414,
      "ÙĨØ´": 1415,
      "ĠÙĥÙĦ": 1416,
      "888": 1417,
      "art": 1418,
      "244": 1419,
      "Ø¨ÙĨ": 1420,
      "Ø§ÙĨØŃÙĦØ§ÙĦ": 1421,
      "Ġf": 1422,
      "ĠÙģÛĮÙĦÙħ": 1423,
      "ĠØªØ§Ø¨Ø³ØªØ§ÙĨÛĮ": 1424,
      "907": 1425,
      "ing": 1426,
      "ed": 1427,
      "ÙħØ±ÙĬ": 1428,
      "334": 1429,
      "Ø§Ø¨ÙĤ": 1430,
      "ĠÙĨÛĮÙĪ": 1431,
      "Û±Û¶": 1432,
      "ĠÛ±Û¹Ûµ": 1433,
      "Ø§ÙĦØ§": 1434,
      "Ø³ÙĬÙĨ": 1435,
      "Ø²Ø§Ø±": 1436,
      "ĠØ§Ø³ÙĦØ§Ùħ": 1437,
      "998": 1438,
      "Ø¶Ø§": 1439,
      "ÙĪØ²Ùĩ": 1440,
      "ÙħÙĬ": 1441,
      "ÙģØ§": 1442,
      "Ú¯Ø±Ø§ÙĨ": 1443,
      "ÙĤØ§": 1444,
      "Ø¬Ø§Ùħ": 1445,
      "ĠL": 1446,
      "ØªØ§ÙĨÛĮØ§": 1447,
      "Ø±ÙĪÛĮ": 1448,
      "ĠØ¬ÙĨÚ¯": 1449,
      "Ú¯ÙĪØ±": 1450,
      "646": 1451,
      "Û±Û·": 1452,
      "ĠØ¬ÙħÙĩÙĪØ±ÛĮ": 1453,
      "ĠÚ¯ÙĦ": 1454,
      "ĠÛ·": 1455,
      "Û±Û²": 1456,
      "color": 1457,
      "ØºØ±Ø§Ùģ": 1458,
      "649": 1459,
      "ĠÛĮÚ©": 1460,
      "ĠÙĩÙĪ": 1461,
      "640": 1462,
      "ĠÚĺÙĪØ¦": 1463,
      "ountry": 1464,
      "Ø³ØªÙĩ": 1465,
      "Ø²Ø§Ø³": 1466,
      "ĠØ¨Ø²Ø±Ú¯": 1467,
      "Ø¯Ùħ": 1468,
      "Ø¶ÛĮØŃØ§Øª": 1469,
      "ĠØ¬ÛĮ": 1470,
      "534": 1471,
      "Ø³ÛĮÙĩ": 1472,
      "ØªÙĪØ¶ÛĮØŃØ§Øª": 1473,
      "414": 1474,
      "211": 1475,
      "Ø§ÙĨØ§": 1476,
      "889": 1477,
      "ÙĪØ§Ø±": 1478,
      "Ø¢ÙĨ": 1479,
      "Ø¨Øª": 1480,
      "Ø¨Ø¯Ø§ÙĦ": 1481,
      "ÙĪÙĨÙĬ": 1482,
      "ÙĪØ§ÙĦ": 1483,
      "433": 1484,
      "ĠØ²ÛĮ": 1485,
      "Ġdata": 1486,
      "ĠÚ©Ø±": 1487,
      "ĠØ¯Ø±Ø¬Ùĩ": 1488,
      "ĠØªØ§Ø±ÛĮØ®ÛĮ": 1489,
      "105": 1490,
      "Country": 1491,
      "Ø²ÙĨ": 1492,
      "ĠÙĨØ¸": 1493,
      "Ø´ÙĨØ§Ø³ÛĮ": 1494,
      "Ø³ÛĮØ¯": 1495,
      "897": 1496,
      "ae": 1497,
      "999": 1498,
      "ĠB": 1499,
      "619": 1500,
      "Ø¯ÙĩØ³ØªØ§ÙĨ": 1501,
      "ĠÛ¸": 1502,
      "ĠØ¯Ø§Ø±": 1503,
      "777": 1504,
      "612": 1505,
      "Ø´Ú©": 1506,
      "Ø§ÛĮØ§ÙĨ": 1507,
      "Ø§ÙĨØ¯ÛĮ": 1508,
      "ĠØ§Ø³ØªØ±": 1509,
      "Ú¯Ø²Ø§Ø³": 1510,
      "ÛĮØ§ÛĮ": 1511,
      "ĠÛĮÙĪ": 1512,
      "241": 1513,
      "Ø¨Ø±Ø¯": 1514,
      "ĠØ³Ø§Ø²Ùĩ": 1515,
      "637": 1516,
      "ĠØ§ÙĪÙĦ": 1517,
      "Û±Û¹": 1518,
      "Ø§Ø¨Ø±ÛĮ": 1519,
      "626": 1520,
      "Ú¯Ø±ÛĮ": 1521,
      "ØªØ§Ø¨": 1522,
      "616": 1523,
      "na": 1524,
      "ĠØ¯ÙĪÙħ": 1525,
      "Ù¾ÙĬ": 1526,
      "632": 1527,
      "ĠØ¢ÙħØ±ÛĮÚ©": 1528,
      "sh": 1529,
      "ĠØ¨Ø±ÛĮØªØ§ÙĨÛĮØ§": 1530,
      "425": 1531,
      "Ú¯ÙĦØ³ØªØ§ÙĨ": 1532,
      "475": 1533,
      "Ù¾Øª": 1534,
      "233": 1535,
      "636": 1536,
      "ÙĨØ¯Ø§ÙĨ": 1537,
      "Ø´ØªÙĩ": 1538,
      "Ø±ÙĪØ³": 1539,
      "Ø±Ø¬": 1540,
      "Ø®Ø§ÙĨ": 1541,
      "Ø§Ú©ÛĮ": 1542,
      "Û±Û¹Û": 1543,
      "ÙĪØ±Ú©": 1544,
      "Û±Û´": 1545,
      "Ø¹ÛĮ": 1546,
      "ĠÛ±Û²": 1547,
      "ĠÙģØ±Ø§ÙĨØ³Ùĩ": 1548,
      "638": 1549,
      "ÙħØ§Ø±ÛĮ": 1550,
      "ÚĨÛĮ": 1551,
      "ur": 1552,
      "ØªØ³": 1553,
      "Ø±ÛĮÙĩ": 1554,
      "Û±Û±": 1555,
      "ĠÛ±Û°": 1556,
      "615": 1557,
      "ÙĪØ±Ø²Ø´Ú©Ø§Ø±Ø§ÙĨ": 1558,
      "617": 1559,
      "ch": 1560,
      "et": 1561,
      "ÙĪÛĮÛĮ": 1562,
      "ĠØªÚ¯Ø²Ø§Ø³": 1563,
      "314": 1564,
      "Ù¾Ø±Ø§Øª": 1565,
      "ÙĪÙĥ": 1566,
      "ĠÛ±Û¹Û´": 1567,
      "Ø´Ø§Ø±": 1568,
      "ĠØ¬ÙĩØ§ÙĨÛĮ": 1569,
      "ØªÙĬ": 1570,
      "ĠØ¹ÙĦÛĮ": 1571,
      "Ø²Ø§": 1572,
      "ĠØ²Ø§Ø¯Ùĩ": 1573,
      "ĠØ§Ø¯": 1574,
      "125": 1575,
      "ÙĦØ²": 1576,
      "Ø±ÙĩÙĨÚ¯": 1577,
      "887": 1578,
      "Ø§ØªÛĮ": 1579,
      "ĠØ®Ø§ÙĨ": 1580,
      "ĠØ¨ÙĬ": 1581,
      "455": 1582,
      "ĠD": 1583,
      "375": 1584,
      "355": 1585,
      "313": 1586,
      "Ø²Ø¨": 1587,
      "ÙĤÙħØ±ÛĮ": 1588,
      "ĠØºØ±Ø¨ÛĮ": 1589,
      "Ġma": 1590,
      "Ú©ÙĪÙĩ": 1591,
      "898": 1592,
      "195": 1593,
      "ÙĪØ±Ø§": 1594,
      "175": 1595,
      "ĠF": 1596,
      "Ø¢Ø«Ø§Ø±": 1597,
      "ĠØ¢ÙĦÙħØ§ÙĨ": 1598,
      "ĠÛ±Û´": 1599,
      "ÙħÙĦÙĦÛĮ": 1600,
      "ĠÚ©Ùĩ": 1601,
      "ĠÚ©Ø§ÙĦÛĮ": 1602,
      "Ø§ØªØ±": 1603,
      "413": 1604,
      "ÙĪÙĦÛĮÙĨ": 1605,
      "997": 1606,
      "ÙĤÙĬ": 1607,
      "Ø¢ÙĦØ¨ÙĪÙħ": 1608,
      "ĠÛ±Û¹Û³": 1609,
      "642": 1610,
      "ØŃÙħ": 1611,
      "Ġs": 1612,
      "324": 1613,
      "ÙĬÙĦÙĬ": 1614,
      "ÙģØ±ÙĨÛĮØ§": 1615,
      "Ú¯Ø²ÛĮØ¯ÙĨ": 1616,
      "ÙħØ²": 1617,
      "ÙĥØ§Ø±": 1618,
      "Ø§ÙģØ±Ø§Ø¯": 1619,
      "Ú©Ø±ÛĮ": 1620,
      "740": 1621,
      "ĠØ¹ÙĦÙĬ": 1622,
      "ĠÛ²Û°Û²": 1623,
      "ĠÙĤÙĦ": 1624,
      "213": 1625,
      "395": 1626,
      "Ø¸Øª": 1627,
      "Ø¯ÙĪÙĨ": 1628,
      "Ø³ØªØ§": 1629,
      "Ø³Ø§Ùħ": 1630,
      "Ø³Ø§Ø²ÙħØ§ÙĨ": 1631,
      "Ø§Ø³ÙĬ": 1632,
      "Û±Ûµ": 1633,
      "Ø¬Ø¯": 1634,
      "471": 1635,
      "Ø¬ØºØ±Ø§Ùģ": 1636,
      "ÙĪÙĦÙĪ": 1637,
      "ØªÙĩ": 1638,
      "Ø¦ÙĪ": 1639,
      "Ø³Ø§ÙĦ": 1640,
      "ĠØ´Ø§Ùĩ": 1641,
      "174": 1642,
      "191": 1643,
      "Ø³Ùħ": 1644,
      "352": 1645,
      "465": 1646,
      "ÙĪØ¯ÙħØ§ÙĨ": 1647,
      "123": 1648,
      "ĠÙĨØ§Ùħ": 1649,
      "Ø±ÙĪÛĮØ¯": 1650,
      "Ø¬ÙĨÚ¯": 1651,
      "152": 1652,
      "Ø¬Ø¹": 1653,
      "153": 1654,
      "ort": 1655,
      "ÙĩØ§ÙĨ": 1656,
      "ĠÚĺØ§Ù¾": 1657,
      "Ø³Ú©ÛĮ": 1658,
      "Ø®ÙĪØ§ÙĨ": 1659,
      "Ú©ØªØ§Ø¨": 1660,
      "ocation": 1661,
      "171": 1662,
      "ĠØ§ÙĬØ±Ø§ÙĨ": 1663,
      "Ġmap": 1664,
      "385": 1665,
      "ĠÙĨÚ¯Ø§Ø±Ùĩ": 1666,
      "ÙĪÙĦØª": 1667,
      "Ø§ÙĨØ¯Ø±": 1668,
      "ĠÚ©Ø§ÙĦÛĮÙģØ±ÙĨÛĮØ§": 1669,
      "686": 1670,
      "Ø³ØªÛĮ": 1671,
      "155": 1672,
      "154": 1673,
      "ÙĪÛĮÙĩ": 1674,
      "ØŃÛĮ": 1675,
      "Ġ2": 1676,
      "ĠØ³ÙĪØ¦": 1677,
      "492": 1678,
      "Ø±ÛĮÚ©": 1679,
      "ÙĦØ±Ø²Ùĩ": 1680,
      "os": 1681,
      "ÙģÙĩ": 1682,
      "ÙĪØ±Ø¬": 1683,
      "Ø®Ø±": 1684,
      "696": 1685,
      "Ú¯Ø±ÙĪÙĩ": 1686,
      "The": 1687,
      "Ø¨Ø§Ø³": 1688,
      "ÙĬÙĨÙĬ": 1689,
      "Ø¨Ø±Ú¯": 1690,
      "394": 1691,
      "Ø§ÛĮØ²Ùĩ": 1692,
      "ĠØ´ÛĮ": 1693,
      "ĠØ§ÙĨÚ¯ÙĦØ³ØªØ§ÙĨ": 1694,
      "121": 1695,
      "ÙĨØ¯ÛĮ": 1696,
      "ÙĪØ±ÙĨ": 1697,
      "ØºØ§ÙĨ": 1698,
      "481": 1699,
      "192": 1700,
      "102": 1701,
      "Ø§ÙĪÙĨ": 1702,
      "474": 1703,
      "ĠØ§Ø¨": 1704,
      "Location": 1705,
      "008": 1706,
      "ÛĮØ§Ø¯": 1707,
      "Ø§ÙĪÙĦ": 1708,
      "ĠI": 1709,
      "ÛĮÙĨØ§": 1710,
      "184": 1711,
      "ÙĪØ±ÙĪ": 1712,
      "bo": 1713,
      "009": 1714,
      "422": 1715,
      "ÚĺÛĮ": 1716,
      "365": 1717,
      "Ø§ØªÙĩ": 1718,
      "372": 1719,
      "Ġlogo": 1720,
      "ĠØ¢ÙĨ": 1721,
      "la": 1722,
      "ilm": 1723,
      "381": 1724,
      "Ø¯Ø±Ú¯Ø°": 1725,
      "114": 1726,
      "ĠØ´Ùĩ": 1727,
      "382": 1728,
      "ÙĥØ§ÙĨ": 1729,
      "786": 1730,
      "Ø¬ØºØ±Ø§ÙģÛĮØ§ÛĮ": 1731,
      "Ø§Ø¨Ø·": 1732,
      "361": 1733,
      "303": 1734,
      "ÙĨØ¯Ø±": 1735,
      "ĠØ§ÙĤ": 1736,
      "647": 1737,
      "111": 1738,
      "627": 1739,
      "ØŃØ«": 1740,
      "462": 1741,
      "ĠÚ©ÛĮ": 1742,
      "ÙģØªÙĩ": 1743,
      "Ø±ÙħØ§ÙĨ": 1744,
      "Ø®Ø§Ø¨Ø§Øª": 1745,
      "301": 1746,
      "122": 1747,
      "181": 1748,
      "344": 1749,
      "ØªÛĮÙħ": 1750,
      "Ú¯Ø±Ø¯": 1751,
      "ir": 1752,
      "Ø±ÙĪÛĮØ¯Ø§Ø¯Ùĩ": 1753,
      "Ø±ÛĮØ´": 1754,
      "Ø¹Ø§Øª": 1755,
      "Ø³ÛĮØ§Ø³Øª": 1756,
      "ĠR": 1757,
      "485": 1758,
      "Ø§ÙħÚ¯Ø§Ùĩ": 1759,
      "101": 1760,
      "806": 1761,
      "Ø¦ÛĮ": 1762,
      "Ø³ØªÚ¯Ø§Ùĩ": 1763,
      "ÙħØ³Ø§Ø¨ÙĤ": 1764,
      "Ø¨Ø§Ø²ÛĮÚ©ÙĨØ§ÙĨ": 1765,
      "Ú©Ø²ÛĮ": 1766,
      "ĠG": 1767,
      "325": 1768,
      "165": 1769,
      "ĠÙĩØ±": 1770,
      "ĠØ¨Ø§Ø±": 1771,
      "ØªØ´": 1772,
      "185": 1773,
      "452": 1774,
      "495": 1775,
      "103": 1776,
      "Ú©Ø§Øª": 1777,
      "em": 1778,
      "421": 1779,
      "124": 1780,
      "ĠØ³ÙĦ": 1781,
      "ĠØ¢Ø¨": 1782,
      "ĠØ§Ø·": 1783,
      "323": 1784,
      "322": 1785,
      "302": 1786,
      "441": 1787,
      "ÙħØ§ÙĦ": 1788,
      "ĠÙħÙĤ": 1789,
      "Ø§ÙĨØ¯ÛĮØ³": 1790,
      "162": 1791,
      "ÙħÛĮØ±": 1792,
      "ÙĪÙĦØ§": 1793,
      "666": 1794,
      "000": 1795,
      "ÙĪØ±Ùĩ": 1796,
      "363": 1797,
      "461": 1798,
      "Ø§ÙĪØ§": 1799,
      "405": 1800,
      "451": 1801,
      "755": 1802,
      "104": 1803,
      "172": 1804,
      "ĠØ¦": 1805,
      "ÙĪØ¯ÛĮ": 1806,
      "ĠØ³ÙĨ": 1807,
      "ĠÙħÙĪÙĨ": 1808,
      "Ú©Ùĩ": 1809,
      "ÙħØ¨ØŃØ«": 1810,
      "404": 1811,
      "183": 1812,
      "483": 1813,
      "Ø§Ø¨Ø§ÙħØ§": 1814,
      "ØªØ¨Ø§Ø±": 1815,
      "ÙĪÙĦÙĩ": 1816,
      "423": 1817,
      "364": 1818,
      "482": 1819,
      "ĠÙ¾Ø±ÙĪ": 1820,
      "373": 1821,
      "name": 1822,
      "454": 1823,
      "161": 1824,
      "484": 1825,
      "351": 1826,
      "Ø§Ø±Ø³ØªØ§ÙĨ": 1827,
      "331": 1828,
      "Ù¾Ø±Ø§ØªÙĪØ±ÛĮ": 1829,
      "ÙĪØ±ÛĮÙĩ": 1830,
      "Ġ1": 1831,
      "ĠÙħÛĮÙĦØ§Ø¯ÛĮ": 1832,
      "275": 1833,
      "ĠÙ¾ÙĬ": 1834,
      "Ù¾Ø§ÙĨÛĮØ§": 1835,
      "ĠÙħØ³": 1836,
      "ÛĮÙĨÙĪ": 1837,
      "295": 1838,
      "131": 1839,
      "Ú©ÙĦÛĮ": 1840,
      "ĠØ§ÛĮØª": 1841,
      "ĠÙĪØ±Ø²Ø´ÛĮ": 1842,
      "343": 1843,
      "Ø´ÙĬ": 1844,
      "eg": 1845,
      "876": 1846,
      "ØªØµ": 1847,
      "ÙĩØ±Ùĩ": 1848,
      "ÙĩØ±Ø§ÙĨ": 1849,
      "ĠØ´ÙĨ": 1850,
      "424": 1851,
      "151": 1852,
      "164": 1853,
      "3166": 1854,
      "IS": 1855,
      "Ø§Ø¯ÙĪ": 1856,
      "ÙĩØ§Ø±": 1857,
      "143": 1858,
      "354": 1859,
      "ÙĤÙĩ": 1860,
      "ÙħÙĨØ·ÙĤÙĩ": 1861,
      "ØŃØ³ÛĮÙĨ": 1862,
      "333": 1863,
      "392": 1864,
      "205": 1865,
      "Ø¯ÙĦ": 1866,
      "Ù¾ÙĪØ¯ÙħØ§ÙĨ": 1867,
      "473": 1868,
      "arty": 1869,
      "ig": 1870,
      "Ø´ÙħÙĩ": 1871,
      "225": 1872,
      "453": 1873,
      "144": 1874,
      "341": 1875,
      "472": 1876,
      "007": 1877,
      "ÙĪÙĨÙĩ": 1878,
      "463": 1879,
      "ÙĥØ±": 1880,
      "Ø¨Ø§Ø¨": 1881,
      "ÙĥØ³": 1882,
      "ĠØ¨Ø§Ø´Ú¯Ø§Ùĩ": 1883,
      "Ø²ÙħÙĬÙĨ": 1884,
      "362": 1885,
      "491": 1886,
      "656": 1887,
      "383": 1888,
      "443": 1889,
      "Ø§Ø·": 1890,
      "ĠØ´Ø±ÙĤÛĮ": 1891,
      "ĠØ¯Ø§ÙĨØ´Ú¯Ø§Ùĩ": 1892,
      "493": 1893,
      "ÙħØ§Ø±Ú©": 1894,
      "ĠØ³Ø§": 1895,
      "ĠÙħÙĪØ³ÛĮÙĤÛĮ": 1896,
      "ÙĪØ±Ø§ÙĨ": 1897,
      "Ø§ÙĬÙĨ": 1898,
      "Ø§ÙĨØ¯ÙĬØ³": 1899,
      "304": 1900,
      "ist": 1901,
      "ĠÛ±Û¹Û¹": 1902,
      "ĠØ¢Ø³ÛĮØ§": 1903,
      "Ø´ØªÚ¯Ø§ÙĨ": 1904,
      "193": 1905,
      "592": 1906,
      "374": 1907,
      "595": 1908,
      "113": 1909,
      "ĠØ¯ÙĪØ±Ùĩ": 1910,
      "262": 1911,
      "Ø²ÛĮØ±Ùĩ": 1912,
      "ct": 1913,
      "ĠÙĥØ§Ø±": 1914,
      "265": 1915,
      "Ø¢ÛĮ": 1916,
      "Ø¯Ø§Ø±ÛĮ": 1917,
      "Ø¯Ø§Ùħ": 1918,
      "ØµÙĦ": 1919,
      "305": 1920,
      "402": 1921,
      "..": 1922,
      "182": 1923,
      "622": 1924,
      "Ø¬ÙĬ": 1925,
      "ISO": 1926,
      "585": 1927,
      "ĠØŃØ§Ø¬": 1928,
      "Ù¾ÙĪØ±": 1929,
      "522": 1930,
      "896": 1931,
      "575": 1932,
      "ĠÙ¾Ø§Ø±": 1933,
      "ĠØ³ÙĨÚ¯": 1934,
      "ÙħÙĪØ±": 1935,
      "ĠÙģÙĦÙĪØ±": 1936,
      "Ø¯ÛĮÙĨ": 1937,
      "ĠØªÙĨ": 1938,
      "ĠT": 1939,
      "464": 1940,
      "ÙħÙĪØ³ÛĮÙĤÛĮ": 1941,
      "ce": 1942,
      "Ø²ÛĮÙĦ": 1943,
      "353": 1944,
      "525": 1945,
      "box": 1946,
      "ÙħÙĪØ²Ùĩ": 1947,
      "Ø¨Ø±Øª": 1948,
      "552": 1949,
      "ÙħØ§Ùĩ": 1950,
      "494": 1951,
      "ĠÚĺØ§Ù¾ÙĨ": 1952,
      "ÙĩÛĮ": 1953,
      "ĠÙģØ§Ø±": 1954,
      "ĠØ¢ÙģØ±ÛĮ": 1955,
      "ĠÙĪÛĮØ±Ø¬": 1956,
      "ĠØ§ÙĪØª": 1957,
      "561": 1958,
      "705": 1959,
      "Ø¯Ø±ÛĮ": 1960,
      "384": 1961,
      "ĠÙħÙĪØ±": 1962,
      "Ú¯Ø§": 1963,
      "ÙĥØª": 1964,
      "Ø®ÙĪØ§": 1965,
      ").": 1966,
      "194": 1967,
      "401": 1968,
      "ÙĤØ§ÛĮ": 1969,
      "403": 1970,
      "1080": 1971,
      "431": 1972,
      "Ø¨ÙĪØª": 1973,
      "393": 1974,
      "ÙĪÙħÛĮ": 1975,
      "ĠÛ±Û¹Û²": 1976,
      "ÙĪÙĦÙģ": 1977,
      "ĠØ¬ÙĬ": 1978,
      "ĠØ±ÙĪØ¯": 1979,
      "Ø¯Ø±Ú¯Ø°Ø´ØªÚ¯Ø§ÙĨ": 1980,
      "ÛĮØ§Ø¯Ø¨ÙĪ": 1981,
      "ĠÙħØ§Ø³": 1982,
      "791": 1983,
      "Ø´ÙĨÙĪ": 1984,
      "321": 1985,
      "505": 1986,
      "163": 1987,
      "776": 1988,
      "Ø§Ø¨ÛĮ": 1989,
      "ĠØ§ØŃ": 1990,
      "Ø¹ÙĦÙĬ": 1991,
      "886": 1992,
      "ÙĥÙĨ": 1993,
      "274": 1994,
      "ÙĪÛĮØª": 1995,
      "ØŃØ³ÙĨ": 1996,
      "ĠÚ©Ø§ÙħÙĦ": 1997,
      "Ø±ÙĤ": 1998,
      "ĠÙĤÙĦØ¹Ùĩ": 1999,
      "285": 2000,
      "ØµÛĮ": 2001,
      "ĠØ§ÛĮØ±": 2002,
      "996": 2003,
      "391": 2004,
      "573": 2005,
      "601": 2006,
      "ÙĩÙĨØ±": 2007,
      "Ø³Ø§ÛĮ": 2008,
      "Ø¨Ø§Øº": 2009,
      "173": 2010,
      "ÙĬÙĨÙĩ": 2011,
      "906": 2012,
      "ĠÛĮÙĪÙĨ": 2013,
      "ĠÙħÛĮÙĨÙĩ": 2014,
      "ØŃØ§Ø¯": 2015,
      "ÛĮØ§Ø¯Ø¨ÙĪØ¯ÙĩØ§ÛĮ": 2016,
      "ĠParty": 2017,
      "371": 2018,
      "201": 2019,
      "Ø±ÙĪØ§Ø¨Ø·": 2020,
      "ĠÙĪØ±": 2021,
      "II": 2022,
      "Ø±Ø§Ø¦": 2023,
      "ĠØ¬Ø§ÙĨ": 2024,
      "ĠØºØ±Ø¨": 2025,
      "ĠÙħÙĨØŃÙĦ": 2026,
      "565": 2027,
      "Ø¬Ø¹Ø¨Ùĩ": 2028,
      "ĠN": 2029,
      "ser": 2030,
      "204": 2031,
      "783": 2032,
      "ØªØ±Ø§Ø¨Ø±ÛĮ": 2033,
      "Ø¬Ø§": 2034,
      "ĠØ³Ø¨": 2035,
      "ĠØ¯ÙĦ": 2036,
      "ÙĨÙĤ": 2037,
      "ÙģÙĬ": 2038,
      "In": 2039,
      "ØªØ±ÛĮ": 2040,
      "ÙģÙĨ": 2041,
      "ÙħÙĬÙĦØ§Ø¯": 2042,
      "ÙĪÛĮØ¯": 2043,
      "ÙĪØ±Ø²Ø´Ú¯Ø§Ùĩ": 2044,
      "ÙħÙĪØ²Ø´": 2045,
      "ÙħØ³Ø§Ø¨ÙĤØ§Øª": 2046,
      "ag": 2047,
      "ØŃÙĪØ²Ùĩ": 2048,
      "ĠØ§Ø³Ù¾Ø§ÙĨÛĮØ§": 2049,
      "ĠÚĨÛĮÙĨ": 2050,
      "444": 2051,
      "um": 2052,
      "1135": 2053,
      "571": 2054,
      "ÙħÙĬÙĦØ§Ø¯ÙĬ": 2055,
      "vg": 2056,
      "ĠØ±Ø§Ùĩ": 2057,
      "ĠÛ¹Û": 2058,
      "Ø¯Ø³": 2059,
      "ÙĦØ§ÙĨ": 2060,
      "ĠÙĪØ§Ø´": 2061,
      "Ø³ØªÙĪÙĨ": 2062,
      "ÙģØ±Ø¯": 2063,
      "ÙħØ§ÙĬ": 2064,
      "ĠW": 2065,
      "ÙħØ±Ø¯": 2066,
      "Ø¹Øª": 2067,
      "Û¹Û°": 2068,
      "Ø´Ø§ÙĨ": 2069,
      "Ú©Ø´ØªÛĮ": 2070,
      "Ø±ÛĮØ²": 2071,
      "Ø¨ÙĪØ±Ú¯": 2072,
      "224": 2073,
      "Ø¬Ø§ÛĮØ²Ùĩ": 2074,
      "Ø´ÙĨÙĪØ§Ø±Ùĩ": 2075,
      "ÙħÙĨØ³ØªØ§ÙĨ": 2076,
      "Ø§ÙĦÙĦÙĩ": 2077,
      "ĠØ§Ø´": 2078,
      "695": 2079,
      "524": 2080,
      "iv": 2081,
      "ÙĨÙĩØ§Ø±": 2082,
      "672": 2083,
      "ĠØ²ÙĨØ§ÙĨ": 2084,
      "Ø°Ø±Ø¨": 2085,
      "583": 2086,
      "ĠH": 2087,
      "ÙĨØµÙģ": 2088,
      "502": 2089,
      "Ø·Ø§ÙĨ": 2090,
      "ÙĪÛĮÙĪØ±Ú©": 2091,
      "svg": 2092,
      "ĠØ¬ÙĨ": 2093,
      "1239": 2094,
      "202": 2095,
      "Ø±ÙĪÛĮØ¯Ø§Ø¯ÙĩØ§ÛĮ": 2096,
      "ÙħÙĪØª": 2097,
      "554": 2098,
      "ĠØªÙĪØ³": 2099,
      "562": 2100,
      "ÛĮØ¯Ø§": 2101,
      "1145": 2102,
      "Ø±Ø§ÛĮ": 2103,
      "ĠØ±ÙĪØ³ÛĮÙĩ": 2104,
      "555": 2105,
      "ĠØ§ÙĬØ§ÙĦØ§Øª": 2106,
      "Ø§ÛĮØ¹": 2107,
      "903": 2108,
      "593": 2109,
      "ĠÙħÙĦÙĬ": 2110,
      "ĠÙĦÙĪ": 2111,
      "Ø§ÙĦÙħÙĦÙĦÛĮ": 2112,
      "ĠÙĨØ¸Ø§ÙħÛĮ": 2113,
      "282": 2114,
      "141": 2115,
      "ian": 2116,
      "ÙħØ§ÙĩÛĮ": 2117,
      "Ø²ÛĮÚ©": 2118,
      "694": 2119,
      "671": 2120,
      "Ø¨Ø§Ø²ÛĮÚ¯Ø±Ø§ÙĨ": 2121,
      "574": 2122,
      "785": 2123,
      "704": 2124,
      "Ø§ÙĨØªØ®Ø§Ø¨Ø§Øª": 2125,
      "ÙĩÙĨÚ¯": 2126,
      "ĠØ¨Ø§ÙĦ": 2127,
      "563": 2128,
      "572": 2129,
      "Ø§Ø±ÙĪ": 2130,
      "ĠØ¬ÙĩØ§ÙĨ": 2131,
      "ent": 2132,
      "ĠØ§Ø³ÙĦØ§ÙħÛĮ": 2133,
      "828": 2134,
      "Ø§Ø¯Ø±": 2135,
      "668": 2136,
      "712": 2137,
      "ÙĨÙħØ§ÛĮ": 2138,
      "Ø¬ÙĨ": 2139,
      "294": 2140,
      "1059": 2141,
      "261": 2142,
      "1009": 2143,
      "Û³Û°": 2144,
      "722": 2145,
      "551": 2146,
      "Ø§Ø´ÛĮ": 2147,
      "ĠÛ²Û°Û±Û°": 2148,
      "794": 2149,
      "591": 2150,
      "582": 2151,
      "254": 2152,
      "ÙĦÛĮÙĨÙĪÛĮ": 2153,
      "Ø§ÛĮØ²": 2154,
      "283": 2155,
      "ÙħØ¯ÛĮ": 2156,
      "ÙĤØ§ÙĨ": 2157,
      "ie": 2158,
      "264": 2159,
      "781": 2160,
      "ĠÙĩÛĮ": 2161,
      "503": 2162,
      "Ø¹Ø¨Ø¯Ø§ÙĦ": 2163,
      "ĠØ§Ø·ÙĦØ§": 2164,
      "User": 2165,
      "Ø§ØªÙĪ": 2166,
      "Ú©ÛĮÙĩ": 2167,
      "ØºØ§Ø²": 2168,
      "ĠÙħØ§ÙĦ": 2169,
      "ÙĨÙĪØ±": 2170,
      "ÙĪÙĨØ²": 2171,
      "ĠØ§ÛĮØªØ§ÙĦÛĮØ§": 2172,
      "Ø¯Ø§ÙĨØ§ÙĨ": 2173,
      "Ø³ÙĨÚ¯": 2174,
      "281": 2175,
      "ĠÙĨÙĪØ±": 2176,
      "Ù¾ÙĪ": 2177,
      "ĠØ§ÙĦÙĦÙĩ": 2178,
      "Ø¯Ø±Ùĩ": 2179,
      "ĠØªÙĬ": 2180,
      "675": 2181,
      "Ø³ØªÙħ": 2182,
      "1132": 2183,
      "581": 2184,
      "Ø¯ÙĩÙĩ": 2185,
      "Ø´ÛĮØ±": 2186,
      "th": 2187,
      "Ø§ØŃÙħØ¯": 2188,
      "1137": 2189,
      "221": 2190,
      "ĠÙħÙĤØ§ÙĦÙĩ": 2191,
      "ĠÙĨÛĮÙĪÛĮÙĪØ±Ú©": 2192,
      "1060": 2193,
      "504": 2194,
      "ÙģÙĪØ±Ø¯": 2195,
      "271": 2196,
      "Ø§Ø³Ùħ": 2197,
      "ØŃÙĩ": 2198,
      "Ù¾ÙĨ": 2199,
      "ĠÚ©Ø§ÙĨØ§Ø¯Ø§": 2200,
      "ĠÙģÙĨ": 2201,
      "ÙħÛĮÙĨØ§": 2202,
      "792": 2203,
      "ÙĥÙĩ": 2204,
      "684": 2205,
      "ÙĨÛĮÚ©": 2206,
      "ÙģÙĪØªØ¨Ø§ÙĦ": 2207,
      "ĠØªÙĩØ±Ø§ÙĨ": 2208,
      "ĠÚ©ÙĦØ§Ø³": 2209,
      "ĠK": 2210,
      "ÛĮØ´ÛĮ": 2211,
      "ØºØ§ÙĨØ³ØªØ§ÙĨ": 2212,
      "Ø§ÙĦÙĪ": 2213,
      "ĠÙħØŃØ§Ùģ": 2214,
      "702": 2215,
      "ÙħÙĨØ¯": 2216,
      "ØªØº": 2217,
      "818": 2218,
      "Ø²Ø§Ø¯Ú¯Ø§ÙĨ": 2219,
      "Ø®ØªÙĩ": 2220,
      "ĠÙĩÙĨ": 2221,
      "521": 2222,
      "1000": 2223,
      "284": 2224,
      "976": 2225,
      "ep": 2226,
      "Ø¯Ø§Ø¯": 2227,
      "ÚĺÙĨ": 2228,
      "674": 2229,
      "over": 2230,
      "un": 2231,
      "1048": 2232,
      "263": 2233,
      "ÚĨØ§Ùĩ": 2234,
      "ĠÚ¯Ø±Ø¯": 2235,
      "ÙĪÛĮÙĦ": 2236,
      "ÙĦØ±": 2237,
      "782": 2238,
      "693": 2239,
      "683": 2240,
      "1115": 2241,
      "ĠÙĤÙĩØ±": 2242,
      "ÚĨØ±Ø®": 2243,
      "ÛµÛ°": 2244,
      "1146": 2245,
      "701": 2246,
      "ĠÛ²Û±": 2247,
      "523": 2248,
      "ØªØ±ÛĮÙĨ": 2249,
      "654": 2250,
      "662": 2251,
      "681": 2252,
      "653": 2253,
      "665": 2254,
      "ÙħØ¯Ø±": 2255,
      "Ø¨Ø§Øª": 2256,
      "ĠÙĨÙĤ": 2257,
      "ÙĪÙĦÛĮÙĨØ§ÛĮ": 2258,
      "1099": 2259,
      "ĠÛĮØ§": 2260,
      "Ġ3166": 2261,
      "ÙĩØ§ÛĮÙĪ": 2262,
      "Ø¨Ø§ÛĮ": 2263,
      "Ø±ÙĪÙĨ": 2264,
      "ro": 2265,
      "594": 2266,
      "ĠÙ¾ÙĦ": 2267,
      "Ù¾Ø§ÛĮ": 2268,
      "ÛĮØ§ÛĮÛĮ": 2269,
      "ĠØ¢ÙħØ±ÛĮÚ©Ø§ÛĮ": 2270,
      "ĠÙĦÙĪØ¦": 2271,
      "ĠØªÙ¾Ùĩ": 2272,
      "1090": 2273,
      "Ø®ÙĪ": 2274,
      "Ø§ÙħØ²Ø§Ø¯Ùĩ": 2275,
      "ÙħÙĪØ¯": 2276,
      "ĠÙ¾ÙĨØ³": 2277,
      "ĠØ§ÛĮÙĦÛĮÙĨÙĪÛĮ": 2278,
      "ĠØŃØ³ÛĮÙĨ": 2279,
      "ĠÙħÙĬ": 2280,
      "Ø§Øµ": 2281,
      "858": 2282,
      "ĠÙħØ±Ú©Ø²ÛĮ": 2283,
      "ĠØ³ÙĪØªØ§": 2284,
      "273": 2285,
      "ĠÙĦÙĩ": 2286,
      "703": 2287,
      "795": 2288,
      "Ø³Ø¨": 2289,
      "ip": 2290,
      "739": 2291,
      "ĠÙħØ§Ùĩ": 2292,
      "ÙĨØ§ÙĪ": 2293,
      "ĠØ§ÙĨØªØ®Ø§Ø¨": 2294,
      "ha": 2295,
      "Ù¾ÙĬØ´": 2296,
      "ĠÙħØŃØ§ÙģØ¸Øª": 2297,
      "Ø³Ø§ÙĨÙĩ": 2298,
      "820": 2299,
      "1047": 2300,
      "251": 2301,
      "ĠØ§Ø·ÙĦØ§Ø¹Ø§Øª": 2302,
      "272": 2303,
      "ĠÙĪÙĦ": 2304,
      "605": 2305,
      "1147": 2306,
      "ĠÚ©ÙĨØª": 2307,
      "ĠÚ©ÙĪ": 2308,
      "692": 2309,
      "ĠÚ©Ø±Ùĩ": 2310,
      "Û¶Û°": 2311,
      "986": 2312,
      "Ú¯ÙħÛĮÙĨØ§": 2313,
      "if": 2314,
      "ĠÙĩÙĦÙĨØ¯": 2315,
      "750": 2316,
      "685": 2317,
      "Ø·Ø±": 2318,
      "Ø´ÙĩØ±ÙĩØ§ÛĮ": 2319,
      "715": 2320,
      "720": 2321,
      "ĠØ¹ÙĦÛĮØ§": 2322,
      "ÙĪÛĮØ±": 2323,
      "Ø¯Ø§ÙĦ": 2324,
      "Ġm": 2325,
      "691": 2326,
      "Ø±ÙĪØ³ØªØ§": 2327,
      "775": 2328,
      "1026": 2329,
      "ĠE": 2330,
      "Ø¨ÛĮØ§Øª": 2331,
      "ĠØ²Ø¨Ø§ÙĨ": 2332,
      "829": 2333,
      "ĠØ³ÙĪÙħ": 2334,
      "827": 2335,
      "ĠØ¨Ø§Ø²ÙĬ": 2336,
      "ĠØ¢ÙĪØ±": 2337,
      "Ø¡": 2338,
      "ÙĦÙĪØ¦": 2339,
      "ØŃØ²Ø¨": 2340,
      "ÚĺØ§ÙĨ": 2341,
      "855": 2342,
      "602": 2343,
      "ers": 2344,
      "short": 2345,
      "ĠØ±ÙĬ": 2346,
      "ĠØ§ÙĪÙĩØ§ÛĮÙĪ": 2347,
      "Ġfilm": 2348,
      "ĠÚ©Ø±ÛĮ": 2349,
      "Ø§Ú©Ø³": 2350,
      "Ø§Ø¨Øª": 2351,
      "ÙĩÙħ": 2352,
      "621": 2353,
      "737": 2354,
      "738": 2355,
      "603": 2356,
      "1068": 2357,
      "ÛĮÙĨÚ¯ØªÙĨ": 2358,
      "604": 2359,
      "Ø§Ø³Ú©Ø§": 2360,
      "Ġthe": 2361,
      "1058": 2362,
      "ĠØ³ÙģÙĦÛĮ": 2363,
      "756": 2364,
      "815": 2365,
      "Ø§ÙĬØª": 2366,
      "ÙĪØªÙĪ": 2367,
      "625": 2368,
      "ÙħØ§ÛĮÛĮ": 2369,
      "ĠØ¨Ø§Ø³ØªØ§ÙĨ": 2370,
      "ĠØ¬ÙĪØ±Ø¬": 2371,
      "1055": 2372,
      "ĠÚ©Ø§Ø±ÙĪÙĦÛĮÙĨØ§ÛĮ": 2373,
      "ĠØ§Ø³Ù¾": 2374,
      "1079": 2375,
      "ÙħØ§Øª": 2376,
      "1229": 2377,
      "Ø§ÙĬØ±": 2378,
      "ĠÙĤØ§Ø±Ùĩ": 2379,
      "ĠÛ±Û¹Û°": 2380,
      "ul": 2381,
      "Ø§Ø³Ø§ÙĨ": 2382,
      "718": 2383,
      "Ø²Ø§Ø±Ùĩ": 2384,
      "ĠÙģÛĮ": 2385,
      "1039": 2386,
      "Ø¢ÙĨØª": 2387,
      "657": 2388,
      "682": 2389,
      "801": 2390,
      "Ú¯ÛĮØ±ÛĮ": 2391,
      "ĠØ¨Ø®Ø´": 2392,
      "779": 2393,
      "Ø§ÙĨØ¬": 2394,
      "774": 2395,
      "ĠØ¨Ø±ÙĪ": 2396,
      "ĠÙħÙĨØ·ÙĤÙĩ": 2397,
      "ÙħØ§Ø¹": 2398,
      "shortname": 2399,
      "ÙħØ³Ø¬Ø¯": 2400,
      "778": 2401,
      "ÙĨØ²": 2402,
      "Ø®Øµ": 2403,
      "Û¸Û°": 2404,
      "553": 2405,
      "ĠÙħÙĬÙĦØ§Ø¯ÙĬ": 2406,
      "ÙĨØ¯Ú¯ÛĮ": 2407,
      "ÙĪÙĦØ¯": 2408,
      "817": 2409,
      "875": 2410,
      "223": 2411,
      "Ø®ÙĪØ§Ø³Øª": 2412,
      "1070": 2413,
      "ĠÙħØ±Ø¯Ø§ÙĨ": 2414,
      "Ø¤": 2415,
      "826": 2416,
      "ĠØ¨ÙĪ": 2417,
      "ÙĪÛĮØ§ÙĨ": 2418,
      "Ø²Ø§ÛĮØ±": 2419,
      "Ø±Ø§ÙĤ": 2420,
      "939": 2421,
      "ĠØ³Ø§Ø²": 2422,
      "ØŃØ§Ø¬": 2423,
      "ĠØ§Ø³ØªØ±Ø§ÙĦÛĮØ§": 2424,
      "ĠØ¢Ø¨ÛĮ": 2425,
      "1056": 2426,
      "ĠØ³Ø§ÙĨ": 2427,
      "ÙģÛĮÙĦ": 2428,
      "fo": 2429,
      "717": 2430,
      "1057": 2431,
      "804": 2432,
      "ÙĪÙĤØ§ÛĮØ¹": 2433,
      "ÙģØ§ÙĨ": 2434,
      "651": 2435,
      "Û·Û°": 2436,
      "Ú©Ùħ": 2437,
      "203": 2438,
      "Ø±Ø²": 2439,
      "Ø´Ú¯Ø±ÛĮ": 2440,
      "Ø¬Ø§Ø¯Ùĩ": 2441,
      "1227": 2442,
      "Ø±Ø§Ùĩ": 2443,
      "ÙĬØ±Ø¬": 2444,
      "1042": 2445,
      "ÙĩÙĪ": 2446,
      "ĠØ®ÙĪØ¯": 2447,
      "ĠØ§ÚĨ": 2448,
      "ÛĮØ´ÛĮÚ¯Ø§ÙĨ": 2449,
      "ĠØŃØ³ÙĨ": 2450,
      "ĠÙħÛĮØ±": 2451,
      "ĠØ§ÙģØºØ§ÙĨØ³ØªØ§ÙĨ": 2452,
      "Ġb": 2453,
      "Ø§Øº": 2454,
      "ĠØ§ÛĮÙĨ": 2455,
      "ĠØ§Ø¨Ø±": 2456,
      "292": 2457,
      "1088": 2458,
      "ĠÙĨÙĬÙĪ": 2459,
      "Ø±Ø¨Ø³ØªØ§ÙĨ": 2460,
      "772": 2461,
      "Ø§Ø¯ÙĬ": 2462,
      "Û´Û°": 2463,
      "ÙĥØ±ÙĬ": 2464,
      "ÙĨØ§ØŃÙĬÙĩ": 2465,
      "1049": 2466,
      "ĠØ¯Ùħ": 2467,
      "Ø·ÛĮ": 2468,
      "Ø¨Ø±ÙĪ": 2469,
      "006": 2470,
      "Ø°Ø±Ø¨Ø§ÛĮ": 2471,
      "Un": 2472,
      "ĠØ§Ø±Ø¯": 2473,
      "ØªØ±ÙĬ": 2474,
      "ay": 2475,
      "ĠÙĦÙĬ": 2476,
      "1228": 2477,
      "ÙĬÙĨØ§": 2478,
      "ĠØ¯Ø³": 2479,
      "Û²Û²": 2480,
      "Ø§Ø´Øª": 2481,
      "ĠØ§ÛĮØ§ÙĦØª": 2482,
      "ĠØ¹Ø¨Ø¯Ø§ÙĦ": 2483,
      "ĠÙģÙĪØ±": 2484,
      "ĠÙħØ§Ø±Ø³": 2485,
      "895": 2486,
      "ĠÙģØ±ÙĩÙĨÚ¯": 2487,
      "ĠØªØ§ÛĮ": 2488,
      "ÙĬØ²ÙĬ": 2489,
      "ĠÚ©Ø§ÙĦ": 2490,
      "ĠØ¢ÙĦØ§Ø¨Ø§ÙħØ§": 2491,
      "1230": 2492,
      "673": 2493,
      "Ø³ØªØ§ÙĨÙĬ": 2494,
      "Ø¦ÙĪÙĨ": 2495,
      "1008": 2496,
      "ĠØ³Ø±Ø®": 2497,
      "719": 2498,
      "ĠØ§ÙħØ±ÛĮ": 2499,
      "ĠÚ©ÙĪÙĩ": 2500,
      "ÙĦØ§ÙĨØ¯": 2501,
      "ĠØ§Ø±ÙħÙĨØ³ØªØ§ÙĨ": 2502,
      "Ù¾ÙĪÙĦ": 2503,
      "ÙħØ§Ø³": 2504,
      "Ø¯Ø±Ø®ÙĪØ§Ø³Øª": 2505,
      "ĠØ§ØŃÙħØ¯": 2506,
      "ang": 2507,
      "Ø§ØªØ§": 2508,
      "624": 2509,
      "ØŃØ±": 2510,
      "ĠØ§Ø³Ø±Ø§Ø¦": 2511,
      "ĠØ®Ø±": 2512,
      "793": 2513,
      "ĠØ¨Ø§Ø¨": 2514,
      "584": 2515,
      "Ø¬Ø²ÛĮØ±Ùĩ": 2516,
      "1037": 2517,
      "293": 2518,
      "Ù¾ØªØ§ÙħØ¨Ø±": 2519,
      "ĠØ¢ÙħØ±ÛĮÚ©Ø§ÛĮÛĮ": 2520,
      "Ø´ÙĤ": 2521,
      "905": 2522,
      "ĠØ®Ø±Ø¯": 2523,
      "663": 2524,
      "816": 2525,
      "1142": 2526,
      "ĠÙħÛĮØ´ÛĮÚ¯Ø§ÙĨ": 2527,
      "803": 2528,
      "3958": 2529,
      "Ø³Ø³Ùĩ": 2530,
      "ÚĨÙĬ": 2531,
      "856": 2532,
      "ÙĪÛĮÚĨ": 2533,
      "749": 2534,
      "ĠÚĺØ§ÙĨ": 2535,
      "Ø¬Ø´ÙĨÙĪØ§Ø±Ùĩ": 2536,
      "Ø§ÙģØª": 2537,
      "902": 2538,
      "Ø¯Ø§Ø±Ø§ÙĨ": 2539,
      "1012": 2540,
      "995": 2541,
      "Ø²Ø§ÙĨ": 2542,
      "Ú©Ø§Ùħ": 2543,
      "ÛĮÚ©Ø§": 2544,
      "ÚĺØ§ÙĨØª": 2545,
      "ÛĮÙĨÛĮØ§": 2546,
      "ĠÙĪÙĬ": 2547,
      "Ø±ÙĪØ§ÙĨ": 2548,
      "Ø§Ø¦ÙĪ": 2549,
      "892": 2550,
      "726": 2551,
      "ĠØ§Ø¹": 2552,
      "ÛĮÙĦÙĪØ§ÙĨ": 2553,
      "ĠØªÛĮÙħ": 2554,
      "669": 2555,
      "1240": 2556,
      "1139": 2557,
      "ut": 2558,
      "idae": 2559,
      "661": 2560,
      "893": 2561,
      "564": 2562,
      "ĠØ§ÙĪÚ©": 2563,
      "1237": 2564,
      "ĠØ¹Ùħ": 2565,
      "Ú¯ÙĪØ¦": 2566,
      "501": 2567,
      "Ø§ÙĦØ¯ÛĮÙĨ": 2568,
      "ĠÙĩÙĨØ±": 2569,
      "ĠØ³ÙĨØª": 2570,
      "1069": 2571,
      "830": 2572,
      "Ø±Ø¶Ø§": 2573,
      "714": 2574,
      "805": 2575,
      "ĠØ°": 2576,
      "972": 2577,
      "1038": 2578,
      "ĠØ¬ÙĪ": 2579,
      "ÙģØ±ÙĩÙĨÚ¯": 2580,
      "ode": 2581,
      "Ø³Ú©ÙĪ": 2582,
      "Ø¹ÙĦ": 2583,
      "832": 2584,
      "857": 2585,
      "Ø³Ø§Ø²ÛĮ": 2586,
      "ĠÛ²Û°Û°Û°": 2587,
      "678": 2588,
      "Ø®Ø·": 2589,
      "ĠÛ²Û°Û²Û°": 2590,
      "1019": 2591,
      "1148": 2592,
      "ĠØ§Ú©": 2593,
      "901": 2594,
      "885": 2595,
      "ĠØ³Ø¹": 2596,
      "ÚĨØ±Ø®Ùĩ": 2597,
      "data": 2598,
      "1036": 2599,
      "ĠØ±ÙĪØ²": 2600,
      "ĠÙĬÙĥ": 2601,
      "Ø²Ø¯": 2602,
      "ĠÙĩÙĪØ§ÛĮÛĮ": 2603,
      "ÚĨØ´ÙħÙĩ": 2604,
      "Ø§Ø±ÙĨ": 2605,
      "Ú¯Ø³": 2606,
      "ĠØ«": 2607,
      "291": 2608,
      "ÛĮÙĦÙĪØ§ÙĨÛĮØ§": 2609,
      "Ø§Ø¨ÙĪØ±": 2610,
      "ĠØ³Ù¾ØªØ§ÙħØ¨Ø±": 2611,
      "Ø¢ÙĨØ¯": 2612,
      "Ø§Ø¬Ø¹Ùĩ": 2613,
      "812": 2614,
      "ĠØ¢Ø²Ø§Ø¯": 2615,
      "1138": 2616,
      "Û²Û³": 2617,
      "Ø²ÛĮØ±": 2618,
      "ĠØ§ÙĦÙħÙ¾ÙĬÙĥ": 2619,
      "fobox": 2620,
      "Ø³ÙĬØ¯": 2621,
      "ÙħÛĮØª": 2622,
      "ĠØ¯Ø±Ùĩ": 2623,
      "ÛĮÙĦÙĨØ¯": 2624,
      "ÙĪÙĦÙĬ": 2625,
      "1015": 2626,
      "ow": 2627,
      "Ø®ÙĪØ¯": 2628,
      "ĠÚ©ÙĪØª": 2629,
      "1218": 2630,
      "ĠÙĪØ§Ø´ÛĮÙĨÚ¯ØªÙĨ": 2631,
      "ĠØ¯Ø³Ø§ÙħØ¨Ø±": 2632,
      "874": 2633,
      "ØŁ": 2634,
      "957": 2635,
      "Ø°Ø±Ø¨Ø§ÛĮØ¬Ø§ÙĨ": 2636,
      "ÙĨÛĮØ³": 2637,
      "1978": 2638,
      "1232": 2639,
      "ĠÙĨÙĬ": 2640,
      "Ú©Ø§Ø±Ø¨Ø±": 2641,
      "ÙħÙĤ": 2642,
      "Ù¾Ø§Ø±": 2643,
      "Ø®ÙĦ": 2644,
      "Ø§ÚĨÙĪØ³Øª": 2645,
      "Ø§ÛĮØ³ØªÚ¯Ø§Ùĩ": 2646,
      "ĠÚ¯ÙĪØ±": 2647,
      "ĠÚ©ÙĪØ±": 2648,
      "Ø§ÙĩÙĪ": 2649,
      "Ġ18": 2650,
      "Ø§ÚĨÙĩ": 2651,
      "Û²Û´": 2652,
      "Ø¬ÙħÙĩÙĪØ±ÛĮ": 2653,
      "1236": 2654,
      "Ġin": 2655,
      "Ú©ÛĮÙĨ": 2656,
      "ĠÙĪÛĮÙĦ": 2657,
      "1250": 2658,
      "850": 2659,
      "ĠÙħÛĮØ²": 2660,
      "ĠØ±Ø§ÛĮ": 2661,
      "955": 2662,
      "819": 2663,
      "JP": 2664,
      "664": 2665,
      "Ø§ÙĩÛĮÙħ": 2666,
      "771": 2667,
      "773": 2668,
      "623": 2669,
      "991": 2670,
      "938": 2671,
      "Ú©Ø§ÙĦ": 2672,
      "Ú¯ÙĪÙĨ": 2673,
      "ÙģØ§Ø¬Ø¹Ùĩ": 2674,
      "975": 2675,
      "ĠØ¨Ø³": 2676,
      "1020": 2677,
      "ĠÙĪØ§ÙĦ": 2678,
      "Ø±ÙĪÚĺ": 2679,
      "835": 2680,
      "Ø§ÙħÛĮÙĨ": 2681,
      "Ú©ÙĪØ±": 2682,
      "ĠÙĪØ§ÙĤ": 2683,
      "Ø§ØªØ³": 2684,
      "086": 2685,
      "1050": 2686,
      "1027": 2687,
      "ÛĮÙĦÛĮØ§Ùħ": 2688,
      "742": 2689,
      "Ø¯Ø§ÙĨØ´": 2690,
      "Ø§Ø¯Ø´": 2691,
      "Ġ3": 2692,
      "1200": 2693,
      "ĠØ¨Ø§ÙĦØ§": 2694,
      "243": 2695,
      "ĠÙ¾ÙĪØ±": 2696,
      "Ø¹Ùħ": 2697,
      "095": 2698,
      "ĠØ®ÙĦ": 2699,
      "ĠÙģÙĦÙĪØ±ÛĮØ¯Ø§": 2700,
      "ÙĦØ§ÙĤ": 2701,
      "ĠØ¢Ø³ÛĮ": 2702,
      "784": 2703,
      "ĠÙĨÙĪØ§ÙħØ¨Ø±": 2704,
      "ĠØ³Ùĩ": 2705,
      "Ø¬Ø±Ø³ÛĮ": 2706,
      "ap": 2707,
      "ĠØ¨ÙĪØ±": 2708,
      "Ø¯Ø¦": 2709,
      "Ø²ÙĦ": 2710,
      "Ù¾ÛĮÙĨ": 2711,
      "1030": 2712,
      "Infobox": 2713,
      "ĠØ¶": 2714,
      "659": 2715,
      "ĠÙ¾Ø§ÛĮ": 2716,
      "Ø§ÛĮØ§ÙĦØª": 2717,
      "1017": 2718,
      "222": 2719,
      "ĠØµÙĨ": 2720,
      "899": 2721,
      "ØªÙĪÙħ": 2722,
      "ĠØ´ÛĮØ±": 2723,
      "ĠÙħØ¬ÙĦØ³": 2724,
      "Ø´Ø§": 2725,
      "ĠØ³Ø§Ùħ": 2726,
      "ac": 2727,
      "735": 2728,
      "ĠØ§ÙħÙ¾Ø±Ø§ØªÙĪØ±ÛĮ": 2729,
      "660": 2730,
      "ĠÙ¾Ø§Ú©": 2731,
      "ÙģØ±ÙĬ": 2732,
      ")/": 2733,
      "679": 2734,
      "Ø¢Ø±Ø§ÙħÚ¯Ø§Ùĩ": 2735,
      "ĠÚĺÙĪØ¦ÙĨ": 2736,
      "Ø§Ø¨ÙĦ": 2737,
      "1140": 2738,
      "Ġ12": 2739,
      "ĠØ¯Ø±ÛĮØ§ÛĮÛĮ": 2740,
      "Ø±ÙĪÙĩØ§ÛĮ": 2741,
      "ĠÚĺÙĪØ¦ÛĮÙĩ": 2742,
      "Ø³ÙĨØª": 2743,
      "ÙĪÛĮÙĨ": 2744,
      "Ø§Ø³ÙĦØ§Ùħ": 2745,
      "ĠÙĦÙĩØ³ØªØ§ÙĨ": 2746,
      "ab": 2747,
      "ÙħØ´": 2748,
      "1136": 2749,
      "871": 2750,
      "Ø¨ÙĦÛĮ": 2751,
      "JPG": 2752,
      "ĠØ¦ÛĮ": 2753,
      "Ø´ØªØ§Ø±": 2754,
      "919": 2755,
      "ĠÙĬÙĪ": 2756,
      "ĠØ´ÙħØ§ÙĦÙĬ": 2757,
      "1269": 2758,
      "Û²Ûµ": 2759,
      "ĠÛĮÚ©Ùħ": 2760,
      "ĠØ³ÛĮØ§Ùĩ": 2761,
      "ĠÛ²Û°Û±Û²": 2762,
      "728": 2763,
      "Ø§ÙĩÙħØ§": 2764,
      "ÙĥÙĪÙĩ": 2765,
      "1899": 2766,
      "1078": 2767,
      "Ø¨ÛĮÙĦ": 2768,
      "Ú©ÙĪÙħ": 2769,
      "763": 2770,
      "716": 2771,
      "1260": 2772,
      "Ø´Ø¨": 2773,
      "1219": 2774,
      "880": 2775,
      "ĠØ¢ÙħØ±ÙĬ": 2776,
      "ÚĨØ§Ø±": 2777,
      "ĠÙģÙĪØ±ÛĮÙĩ": 2778,
      "Ú¯Ø§ÙĨÛĮ": 2779,
      "1116": 2780,
      "Ø§ÙĪÙĩ": 2781,
      "ĠÚĺØ§ÙĨÙĪÛĮÙĩ": 2782,
      "ĠÚ©ÙĦÛĮ": 2783,
      "1220": 2784,
      "ĠÙħÛĮÙĨ": 2785,
      "Ø¬Øª": 2786,
      "Ø§Ú©ÙĪ": 2787,
      "Ø¨Ø§ÙĨÛĮ": 2788,
      "881": 2789,
      "730": 2790,
      "ĠØ¬ÙĨÙĪØ¨ÙĬ": 2791,
      "ĠO": 2792,
      "ĠÙħÙĦØª": 2793,
      "Ú©Ø§ÛĮ": 2794,
      "ĠØ³Øª": 2795,
      "Ø®ØªØ±": 2796,
      "ĠØ±Ø§": 2797,
      "Ø³ÙĪØ±": 2798,
      "883": 2799,
      "864": 2800,
      "ÙĦØ§Øº": 2801,
      "860": 2802,
      "904": 2803,
      "all": 2804,
      "Ø±ÙĪÙĬ": 2805,
      "ØªØ±Ø§": 2806,
      "ĠÙħØ³Øª": 2807,
      "Ġcode": 2808,
      "ĠÛ²Û°Û±Û¶": 2809,
      "ÛĮØ§ÙĨØ§": 2810,
      "Ø§Ø¨Ø±Øª": 2811,
      "ĠØ´ÙĪØ±ÙĪÛĮ": 2812,
      "1130": 2813,
      "ub": 2814,
      "ĠØ±ÙĪÛĮ": 2815,
      "ĠÚ©Ø±ÙĪ": 2816,
      "1280": 2817,
      "ÙħÛĮØ¯": 2818,
      "ÙĨÙĪÛĮØ³ÙĨØ¯Ú¯Ø§ÙĨ": 2819,
      "Ù¾Ø§Ø±Ú©": 2820,
      "Ù¾Ø§ÙĦ": 2821,
      "ÙĤÙĪÙĤ": 2822,
      "075": 2823,
      "ØµÛĮÙģ": 2824,
      "1246": 2825,
      "253": 2826,
      "658": 2827,
      "ÙĦÛĮÚ¯": 2828,
      "ĠÙĩÙħ": 2829,
      "ĠÙĤÙĦÙħ": 2830,
      "Ø§ÙĨÛĮØ§ÙĨ": 2831,
      "Ø§ÛĮØ±Ø§ÙĨ": 2832,
      "ĠÚĨÙĩØ§Ø±": 2833,
      "1029": 2834,
      "Û²Û¶": 2835,
      "4527": 2836,
      "ĠØ¬ÙĨÙĪØ¨": 2837,
      "894": 2838,
      "948": 2839,
      "985": 2840,
      "ĠÙħØ§Ø±Øª": 2841,
      "ĠÙĥÙĨ": 2842,
      "ĠØ§ÙħØ±ÛĮÚ©Ø§": 2843,
      "ĠÙħØ´": 2844,
      "Ø³ÙĪØªØ§": 2845,
      "ÙĤØ±": 2846,
      "ĠØªÙĪØ³Ø·": 2847,
      "im": 2848,
      "Ú©ØªØ¨Ø§ÙĦ": 2849,
      "1242": 2850,
      "Ù¾Ø³": 2851,
      "ĠØºØ±Ø¨ÙĬ": 2852,
      "3239": 2853,
      "879": 2854,
      "859": 2855,
      "1040": 2856,
      "ĠØ¨ÙĬÙĨ": 2857,
      "ĠØ§ÛĮØ±ÙĦÙĨØ¯": 2858,
      "ĠØ§ÛĮÙĨØ¯": 2859,
      "4629": 2860,
      "ÛĮØ§Ø²": 2861,
      "981": 2862,
      "ĠØ§ÙĦÙħÙĦ": 2863,
      "ĠÙĪÙĦØ²": 2864,
      "916": 2865,
      "ĠÛ¹": 2866,
      "ĠÙ¾ÙĨØ³ÛĮÙĦÙĪØ§ÙĨÛĮØ§": 2867,
      "Ø³ØªÛĮÙĨ": 2868,
      "970": 2869,
      "Ġ15": 2870,
      "983": 2871,
      "ĠØªÙĪØµÛĮÙģ": 2872,
      "ĠÙħØ§Ø³Ø§ÚĨÙĪØ³Øª": 2873,
      "670": 2874,
      "ĠØ®ÙĪ": 2875,
      "ÙħØ¯Ø§Ø±Ø§ÙĨ": 2876,
      "ÙĬÙĨÙĪ": 2877,
      "ĠØ¹ÙĦÙĬØ§": 2878,
      "Ú¯ÙĦÛĮ": 2879,
      "ĠÚ©ÙĪÚĨ": 2880,
      "767": 2881,
      "Ø±ÛĮØ¯": 2882,
      "1118": 2883,
      "Ø®Ø±Ø¯": 2884,
      "541": 2885,
      "ĠØ³ÙĪØ¦Ø¯": 2886,
      "ØªØµØ§Ø¯": 2887,
      "Ø³ÛĮÙĦ": 2888,
      "3959": 2889,
      "ÙĤØ±Ùĩ": 2890,
      "Ø´ÙĩØ±Ú©": 2891,
      "ÙħØ§ÙĨÙĬ": 2892,
      "083": 2893,
      "ØªØºØ§ÙĦ": 2894,
      "Ø¯Ø±ÙĬ": 2895,
      "ĠØ§ÙĨØ¯": 2896,
      "1900": 2897,
      "ÙħÙĪØªÙĪØ±": 2898,
      "652": 2899,
      "ĠØ³ÛĮØ¯": 2900,
      "802": 2901,
      "ĠØªÙĪØ±": 2902,
      "Ø¨ÛĮØ§ÙĨ": 2903,
      "1258": 2904,
      "Ø³ÛĮØ±": 2905,
      "3447": 2906,
      "ĠØªØ±Ú©ÛĮÙĩ": 2907,
      "1067": 2908,
      "950": 2909,
      "ĠÛ²Û°Û°Û¸": 2910,
      "4526": 2911,
      "958": 2912,
      "959": 2913,
      "ĠÙħØµØ±": 2914,
      "Ø§ÙĦÚ©Ø³": 2915,
      "Ú¯Ø§Ø±": 2916,
      "870": 2917,
      "Ú©Ø´": 2918,
      "ĠØ§ÙĦÙĨÙĩØ§Ø±": 2919,
      "920": 2920,
      "ĠÙĨÛĮÙĪØ¬Ø±Ø³ÛĮ": 2921,
      "932": 2922,
      "ity": 2923,
      "1066": 2924,
      "890": 2925,
      "872": 2926,
      "915": 2927,
      "Ġ17": 2928,
      "973": 2929,
      "Ø¨ÙĪØ¯": 2930,
      "868": 2931,
      "748": 2932,
      "846": 2933,
      "Ø°Ø¨Ùĩ": 2934,
      "Û²Û¸": 2935,
      "ÙĪÙĨØ³": 2936,
      "878": 2937,
      "ran": 2938,
      "ĠØ³ÙģÙĦÙĬ": 2939,
      "3200": 2940,
      "5755": 2941,
      "ØªØ¦": 2942,
      "ĠØ§Ø³Ø±Ø§Ø¦ÛĮÙĦ": 2943,
      "1255": 2944,
      "ÙĪØ¦ÙĦ": 2945,
      "759": 2946,
      "Ø¹Ø¨Ø§Ø³": 2947,
      "1032": 2948,
      "ĠØªØ§Ø¨Ø³ØªØ§ÙĨÙĬ": 2949,
      "Ø§ÙĥÙĬ": 2950,
      "936": 2951,
      "ØªØ±ÙĪ": 2952,
      "Û²Û±": 2953,
      "760": 2954,
      "884": 2955,
      "ĠÛ²Û°Û±Û±": 2956,
      "3242": 2957,
      "1006": 2958,
      "935": 2959,
      "ĠÙĪØ§ÙĤØ¹": 2960,
      "Ø§ÙħÙĬ": 2961,
      "Ġ16": 2962,
      "Ø´ÙĨØ§": 2963,
      "ĠÙĩØ²Ø§Ø±Ùĩ": 2964,
      "ĠÚ¯ÛĮ": 2965,
      "Û²Û·": 2966,
      "ĠØ§Ú©Øª": 2967,
      "est": 2968,
      "ĠÚ¯Ø±Ø¯Ø´Ú¯Ø±ÛĮ": 2969,
      "1086": 2970,
      "ĠØ¹Ø±Ø§ÙĤ": 2971,
      "Ø±Ø§Ø¯ÙĪ": 2972,
      "1018": 2973,
      "1279": 2974,
      "Ø¯ÛĮØ¯": 2975,
      "1045": 2976,
      "ÙĩØ§ÙĬ": 2977,
      "644": 2978,
      "ter": 2979,
      "ÙĪØ§ÛĮ": 2980,
      "746": 2981,
      "Ø´ÙĩØ¯": 2982,
      "Ú¯ÙĪØ±Ø³ØªØ§ÙĨ": 2983,
      "Ú©ÙĨÙĨØ¯Ú¯Ø§ÙĨ": 2984,
      "3955": 2985,
      "1268": 2986,
      "ĠÛ²Û°Û±Û´": 2987,
      "1035": 2988,
      "1046": 2989,
      "ĠÙĪÙĨ": 2990,
      "1270": 2991,
      "ĠØ¨Ø§ÙĨ": 2992,
      "ÙĨÚ¯Ø§Ø±Ùĩ": 2993,
      "Ø¨Ø±ÙĬ": 2994,
      "Ø¨Ø±ÙĨØ§ÙħÙĩ": 2995,
      "ea": 2996,
      "ØªÙħ": 2997,
      "918": 2998,
      "ÛĮÙĦÙĪ": 2999
    },
    "merges": [
      "Ø §",
      "Û Į",
      "Ø ±",
      "Ù Ĩ",
      "Ù Ī",
      "Ù ĩ",
      "Ø ¯",
      "Ù ħ",
      "Ù Ħ",
      "Ø ª",
      "Ø ³",
      "Ø ¨",
      "Ù Ĭ",
      "Ø§ ÙĨ",
      "Ú ©",
      "Ú ¯",
      "Ø ´",
      "Ø¯ Ùĩ",
      "â Ģ",
      "âĢ Į",
      "Ø ²",
      "Ø§ ÛĮ",
      "Ù ¾",
      "Ø§ Ø±",
      "Ù ģ",
      "1 0",
      "Ø§ ÙĦ",
      "1 2",
      "Ġ Ø",
      "Ġ Ø§",
      "Ġ (",
      "Ø± Ø¯Ùĩ",
      "4 5",
      "1 9",
      "3 9",
      "4 6",
      "4 2",
      "3 8",
      "3 2",
      "1 5",
      "3 5",
      "3 7",
      "4 8",
      "1 8",
      "1 7",
      "1 6",
      "Ġ Ø¯",
      "3 6",
      "4 7",
      "4 9",
      "4 0",
      "ÙĪ Ø±",
      "Ġ Ùħ",
      "Ø§ Ø¯",
      "Ø³ Øª",
      "Ù Ĥ",
      "3 0",
      "5 5",
      "Ù ĥ",
      "Ġ Ø¨",
      "2 0",
      "ÙĪ ÙĨ",
      "2 6",
      "Ø ¬",
      "Û ±",
      "2 7",
      "5 6",
      "5 7",
      "ÛĮ ÙĦ",
      "Ø§ Ùħ",
      "5 8",
      "5 9",
      "5 0",
      "2 9",
      "ĠØ¯ Ø±",
      "Ø ®",
      "Ùĩ Ø§ÛĮ",
      "2 8",
      "6 0",
      "Û± Û",
      "ÛĮ ÙĨ",
      "7 9",
      "Ø± ÙĪ",
      "Ġ Ø³",
      "Ø§ Ùĩ",
      "Ø Ń",
      "1 1",
      "Ø§ Ø³",
      "7 8",
      "Ø§ Ø¨",
      "7 0",
      "ÙĪ ÛĮ",
      "Ø ¹",
      "Ø§ Øª",
      "6 8",
      "6 9",
      "Ġ Ø´",
      "Ú Ĩ",
      "Ø± ÛĮ",
      "Ġ Ú©",
      "ĠØ ¢",
      "Ġ Ù¾",
      "Ø Į",
      "8 0",
      "3 4",
      "Ú¯ ÙĪ",
      "Ġ Øª",
      "9 0",
      "Û ²",
      "Ø ¢",
      "Ø³Øª Ø§ÙĨ",
      "Û °",
      "5 2",
      "1 4",
      "6 7",
      "Ù Ķ",
      "8 8",
      "Ġ Û±Û",
      "Ø§Ø¯ ÛĮ",
      "Ùĩ Ø±",
      "ÛĮ Ø§",
      "9 9",
      "3 3",
      "Ġ ÙĨ",
      "2 2",
      "6 6",
      "Ġ ÙĪ",
      "4 4",
      "Ġ Ùģ",
      "Ø§ ÙĬ",
      "ÛĮÙĦ Ø§Ø¯ÛĮ",
      "Ø§ÙĦ Ú¯ÙĪ",
      "7 7",
      "Ùħ ÛĮÙĦØ§Ø¯ÛĮ",
      "Ú© ÛĮ",
      "1 3",
      "Ø ·",
      "Ø§ Ø²",
      "ÙĪ ÙĦ",
      "8 9",
      "ĠØ ¬",
      "Ø³ ÛĮ",
      "ÙĨ Ø¯",
      "0 0",
      "Ġ Ùĩ",
      "6 2",
      "ÙĦ ÛĮ",
      "8 7",
      "2 5",
      "4 3",
      "ÙĬ ÙĨ",
      "Ø ¦",
      "ÙĪ Øª",
      "Ù¾ Ø±",
      "ĠØ¨ Ø±",
      "Ø§Ø± ÛĮ",
      "9 8",
      "ĠØ§ Ø³",
      "Ú¯ Ø±",
      "6 5",
      "¹ Û",
      "9 7",
      "4 1",
      "Ú ĺ",
      "Ø¨ Ø±",
      "ÙĨ ÛĮ",
      "Ú¯ Ø§Ùĩ",
      "Ġ Ø§ÛĮ",
      "ÙĬ ÙĦ",
      "3 1",
      "0 9",
      "Ø² ÛĮ",
      "2 1",
      "Ùħ Ø§ÙĨ",
      "Ġ Û²",
      "ÙĪ Ùħ",
      "Ø± Ø§ÙĨ",
      "7 6",
      "0 8",
      "ÙĪÛĮ Ú©ÛĮ",
      "2 4",
      "Ġ Ùĥ",
      "2 3",
      "ĠØ§ Ùħ",
      "Ø¯ ÛĮ",
      "Ø °",
      "Ø µ",
      "Ø§ Ø´",
      "5 4",
      "ÛĮ Ú©",
      "0 7",
      "5 3",
      "9 6",
      "ÙĪÙĨ Ø¯Ùĩ",
      "Ġ ÙĦ",
      "8 6",
      "Ġ Ø²",
      "Ġ Ø§ÙĦ",
      "Ù¾Ø± ÙĪÙĨØ¯Ùĩ",
      "Ùĩ Ø§",
      "5 1",
      "Ø§ÛĮ ÛĮ",
      "Ø¨ ÛĮ",
      "Ø¯ Ø±",
      "Ùħ ÙĪ",
      "Ø º",
      "ÛĮ ÙĪ",
      "ĠØ ®",
      "o n",
      "ÙĩØ± Ø³ØªØ§ÙĨ",
      "Ġ Ø±",
      "Û ³",
      "Ø¨ Ø§Ø¯",
      "Ø¯ ÛĮØ§",
      "Øª Ø±",
      "ÙĨ Ú¯",
      "0 6",
      "ĠØ ¹",
      "Ø³ ÙĬ",
      "ĠÛ±Û ¹Û",
      "7 2",
      "Ù¾ Ø¯ÛĮØ§",
      "Ø§Ø± Ùĩ",
      "8 2",
      "ÛĮ Ø¯",
      "Ġ ÙĤ",
      "Û ´",
      "Ø§ÙĦ ÛĮ",
      "Ùĩ ÙĦ",
      "ÙĪ Ø³",
      "Ġ Ú¯",
      "ĠØ Ń",
      "Ø§ Ú©",
      "Û µ",
      "ĠÛ² Û°",
      "Û ¶",
      "6 4",
      "ĠØ§ Ø²",
      "Û ¸",
      "6 3",
      "7 5",
      "Ø§ Ùģ",
      "6 1",
      "e r",
      "j p",
      "Ø§ ÙĪ",
      "9 2",
      "Û ·",
      "Øª ÛĮ",
      "8 5",
      "jp g",
      "ĠØ§ ÙĩÙĦ",
      "9 5",
      "Ùħ ÙĨ",
      "Ú¯ Ø§ÙĨ",
      "ÛĮ Ø±",
      "Ø¨ Ø§ÙĦ",
      "0 2",
      "ÙĦ ÙĬ",
      "Ùģ Øª",
      "7 4",
      "Ø± ÙĬ",
      "ÛĮÙĦ Ùħ",
      "ÙĨ ÙĪ",
      "Ġ Ø§ÙĨ",
      "8 1",
      "ÙĦ ÙĪ",
      "ÛĮ Ø´",
      "7 1",
      "Ø± Ø¯",
      "9 1",
      "7 3",
      "9 3",
      "8 3",
      "Ø§Ø± Ú©",
      "Ġ ÚĨ",
      "ÙĪØ± ÛĮ",
      "Ø§ÙĨ Ùĩ",
      "ÙĨ Ø§Ùħ",
      "ÙĪ Ø¯",
      "ÙĬ Ø¯",
      "0 5",
      "9 4",
      "Ø§ ÚĨ",
      "Ø§ÙĨ ÛĮ",
      "8 4",
      "Ø ¶",
      "o m",
      "Ú¯ Ø°",
      "Ø§Ø± Ø¯",
      "Ù¾ Ùĩ",
      "ÙĬ ÙĪ",
      "Ø ¸",
      "Ø² Ùĩ",
      "ĠØ´ ÙĩØ±Ø³ØªØ§ÙĨ",
      "Ø± Ùĩ",
      "Ø§ÛĮ Ùĩ",
      "Ùĩ Ø§Ùħ",
      "ÙĪÙĨ ÛĮ",
      "Ùħ Ø¯",
      "Ùģ ÛĮÙĦÙħ",
      "1 17",
      "ÙĨØ§Ùħ Ùĩ",
      "0 4",
      "ÙĬ Ùĥ",
      "a n",
      "ÙĨ Ø§Øª",
      "Ø±ÙĪ Ø¯",
      "Ø´ Øª",
      "Ø¹ Ùĩ",
      "a t",
      "ÙĪ Ø§",
      "Ú© Ø§",
      "1 15",
      "1 18",
      "0 3",
      "Ú© ÙĪ",
      "ÙĨ Ø§",
      "Û ¹",
      "Ø² Ø´",
      "ÙĬ Øª",
      "ÙĦ Ø§",
      "Ùħ Ùĩ",
      "ĠÙ¾ Ø§ÛĮÙĩ",
      "ÙĪØª Ø¨Ø§ÙĦ",
      "Ø§Ø¨ ÙĩØ§Ùħ",
      "0 1",
      "Ø´ Ø¯Ùĩ",
      "Ùħ ÛĮ",
      "Ø¨ Ø§Ø²",
      "Ú¯Ø° Ø§Ø±ÛĮ",
      "1 16",
      "ÙĨ Øª",
      "T a",
      "1 12",
      "ĠØ´ Ùħ",
      "ÙĨÛĮ Ø§ÙĨ",
      "Ø «",
      "Øª Ù¾Ùĩ",
      "ÙĬ Ø±",
      "Ø§Ø± Ùĥ",
      "ÙĤ ÙĨØ§Øª",
      "1 19",
      "ĠÙħ Øª",
      "Ùħ Ø±ÛĮ",
      "Ġ Ø§Ø±",
      "Ùģ Ø±",
      "om y",
      "ÙĪ Ø¦",
      "Ġ Ø±ÙĪ",
      "ÙĪ Ø§ÙĨ",
      "Ø§ Ø¯Ùĩ",
      "ĠØ´ ÙĪØ±",
      "x on",
      "Ta xon",
      "Taxon omy",
      "Ú¯ ÛĮ",
      "ĠÙģ ÙĪØªØ¨Ø§ÙĦ",
      "o r",
      "Ú© Øª",
      "10 7",
      "Ùħ ÛĮÙĨ",
      "ÙĦ Ùĩ",
      "ÙĪØ± Ø´",
      "Ø® Øª",
      "10 8",
      "Ø¯ Ø§ÙĨ",
      "s t",
      "i n",
      "a r",
      "Ø± Ø§",
      "10 0",
      "Ġ Ø¯Ùĩ",
      "ÛĮ Ùĩ",
      "Ø§ÙĦ Ùĩ",
      "Øª Ø¨",
      "Øª ÙĪ",
      "Ùħ ØŃ",
      "ÙĤ Ø·",
      "Ø± Ø¨",
      "Ø§ Ø³Øª",
      "3 19",
      "12 0",
      "2 18",
      "2 17",
      "10 6",
      "Ø¯ Ø§ÛĮÛĮ",
      "2 16",
      "Ú© Ø§Ø±",
      "10 9",
      "2 15",
      "3 45",
      "3 47",
      "Ø§Ùĩ ÛĮ",
      "3 39",
      "3 40",
      "ÙĤ ÛĮ",
      "Ø§ Ùĥ",
      "3 48",
      "3 42",
      "ĠØ§ Ø³Øª",
      "Ø³ ÙĨ",
      "ÙĤØ· Ø¹",
      "3 36",
      "3 46",
      "Ø§ Ø¬",
      "ÙĤØ·Ø¹ ÙĨØ§ÙħÙĩ",
      "ÙĪØ± Ø²Ø´",
      "Ø´ ÙĩØ±Ø³ØªØ§ÙĨ",
      "Ø³ÛĮ Ø§Ø±Ú©",
      "Ø± Ø®",
      "Ø® ÙĪØ±Ø´",
      "4 48",
      "a l",
      "2 38",
      "4 47",
      "Ø§ÙĨ Øª",
      "Ø§ Ù¾",
      "Ø³ÙĬ Ø§Ø±Ùĥ",
      "ĠØ§ ÙĬ",
      "ÛĮÙĪ Ø§Ø³",
      "Ú¯Ø± ÙģØª",
      "ĠÙħØª ØŃ",
      "ÙĬ Ø´",
      "Ø¨ Ùĩ",
      "Ùħ Ø±",
      "Ø³ Ø§",
      "45 0",
      "Ø§ÙĦ Ø§Øª",
      "Ù¾ Ø±ÙĪ",
      "42 8",
      "Ø§ÙĨ Ø¯",
      "12 8",
      "12 9",
      "4 32",
      "Ø¢ Ø¨Ø§Ø¯",
      "1 38",
      "Ø³ ÙĪ",
      "3 38",
      "Ø¨ ÙĨÛĮØ§ÙĨ",
      "2 37",
      "Ø³ Ùĩ",
      "19 0",
      "Ùħ Ø§",
      "ĠÙħØªØŃ Ø¯Ùĩ",
      "2 39",
      "4 46",
      "ÙĬ Ùĩ",
      "Ġ Úĺ",
      "Ø§Ø² ÛĮ",
      "ÙĩØ± Ø³Øª",
      "ĠÛ±Û ¸",
      "42 9",
      "1 37",
      "3 16",
      "4 45",
      "3 37",
      "5 48",
      "1 35",
      "ÙĪ Ù¾",
      "4 49",
      "1 10",
      "12 7",
      "5 46",
      "1 30",
      "Ùħ Ù¾",
      "Ø§ÛĮ ÙĨ",
      "Ø±ÙĪØ¯ Ú¯Ø§Ùĩ",
      "ĠØ¯Ùĩ Ùĩ",
      "2 40",
      "ÙĪ Ø´",
      "3 49",
      "ÙĤ Ø§ÙĦÙĩ",
      "Ø§Ø± Øª",
      "ĠÛ²Û° Û±Û",
      "ĠØ¨ Ùĩ",
      "ÙĬ Ø³",
      "Ø§ÙĬ ÙĬ",
      "m e",
      "ĠØ³ ÛĮ",
      "5 16",
      "1 46",
      "2 35",
      "1 39",
      "32 0",
      "Ùģ ÙĩØ±Ø³Øª",
      "4 38",
      "42 6",
      "4 35",
      "4 30",
      "42 7",
      "ĠØ¢ ÙħØ±ÛĮ",
      "ÙĨ Ø±",
      "1 49",
      "ÙĬ Ø§",
      "ĠØ¢ ÙĦ",
      "4 39",
      "Ġ Ú¯Ø±",
      "Ù¾ ÛĮ",
      "5 47",
      "ĠÙħ ØŃ",
      "32 8",
      "Ø§Ø³ ÛĮ",
      "Ø§Ø¨ Ø§Ø¯",
      "ÙĨ Ùĩ",
      "Ø´ Ø±",
      "4 40",
      "ĠØ µ",
      "Ú© Ø³",
      "1 40",
      "Ø¨ Ø§ÙĨ",
      "1 36",
      "2 36",
      "Ġ ÙĩØ§ÛĮ",
      "ÛĮÙĨ Ú¯",
      "Ø§ Ø¦",
      "46 0",
      "1 47",
      "ÙĬÙĦ Ø§Ø¯",
      "2 49",
      "Ùģ Ø±ÙĪØ¯Ú¯Ø§Ùĩ",
      "37 0",
      "Ġ ÛĮ",
      "3 18",
      "Ġ ÙĪÛĮ",
      "Úĺ Ùĩ",
      "2 20",
      "ÙĪ Ø²",
      "46 8",
      "2 56",
      "ĠØ¢ Ø¨Ø§Ø¯",
      "1 45",
      "Ø¬ ÛĮ",
      "ĠØ º",
      "15 9",
      "Ø³ Ø±",
      "ĠÙħ Ø±",
      "Ú¯ Ø²ÛĮ",
      "Ùħ Ø¬",
      "3 35",
      "2 57",
      "32 7",
      "ÙĪ Ùĩ",
      "5 17",
      "Û ¹Û",
      "2 30",
      "46 9",
      "2 58",
      "ÙĪ Ø¨",
      "5 39",
      "ÛĮ Ø§Ø¨",
      "ÙĦ ÙĨØ¯",
      "1 48",
      "2 48",
      "Ø³ ÙĪÙĨ",
      "16 0",
      "6 30",
      "45 8",
      "2 47",
      "Ø· ÙĤ",
      "Ú¯ ÙĦ",
      "ĠØ§ÛĮ Ø±Ø§ÙĨ",
      "2 55",
      "5 38",
      "5 40",
      "Ø® Ø´",
      "6 39",
      "ĠÙħ ÛĮ",
      "ÙĬ Ùħ",
      "2 19",
      "5 26",
      "2 29",
      "Ø¯ ÙĨ",
      "5 30",
      "ÛĮÙĦ ÛĮ",
      "Ùħ ÙĤØ§ÙĦÙĩ",
      "45 9",
      "Ø® Ø§ÙĨÙĩ",
      "3 17",
      "ÙĨ Ø¸",
      "Ú¯ ÙĬ",
      "Ú© ÙĦ",
      "5 35",
      "15 8",
      "Ø§ ÙĤ",
      "19 8",
      "Ø¢ ÙĦ",
      "ĠÙĩ Ø§ÙĬ",
      "42 0",
      "Ø³ Ú©",
      "Ø¬ Ø§ÙĨ",
      "5 29",
      "Ø§ Ø³ØªØ§ÙĨ",
      "5 28",
      "36 9",
      "12 6",
      "4 18",
      "e n",
      "Ùħ ÙĦ",
      "Ø´ ÙĩØ±",
      "ĠÙħ ÛĮÙĦ",
      "49 0",
      "2 50",
      "ÛĮ Øª",
      "Ø² Ø¯Ø§ÛĮÛĮ",
      "2 28",
      "5 20",
      "45 7",
      "Ø§Ø±ÛĮ Ø®",
      "1 32",
      "ĠÛ²Û° Û°",
      "4 37",
      "45 6",
      "38 8",
      "4 17",
      "15 0",
      "ĠØ¨Ø± Ø§ÛĮ",
      "39 7",
      "16 8",
      "19 9",
      "o l",
      "48 0",
      "ÙĪ Ú©",
      "ĠÛ±Û ¹",
      "Ùģ ÙĦ",
      "Û² Û°",
      "5 27",
      "ĠØ¯Ø± Ø³Øª",
      "Ù¾Ø±ÙĪ ÚĺÙĩ",
      "46 7",
      "56 9",
      "ØªØ¨ Ø§Ùĩ",
      "Ø§Ø´ ØªØ¨Ø§Ùĩ",
      "2 59",
      "ÙħÙĪ Ø§Ø±Ø¯",
      "ĠØ´Ùħ Ø§Ø±Ùĩ",
      "49 9",
      "Ø¬ Ùĩ",
      "1 42",
      "26 7",
      "5 18",
      "4 36",
      "ÙĨ Ø§ÙĨ",
      "Ø§Ùĩ Ø§ÙĦÛĮ",
      "Ø´ ÙĨ",
      "ĠØ³ Ø¯Ùĩ",
      "37 7",
      "40 0",
      "Ø² ÙħÛĮÙĨ",
      "Ø¯ ÙĪ",
      "ĠÚ© ÙĦ",
      "4 42",
      "ĠÙħ ÙĨ",
      "Ø¨ ÙĪ",
      "ĠØ§ Ø¨Ø§Ø¯",
      "35 0",
      "Ùħ Ø§Ø±",
      "4 19",
      "i c",
      "2 45",
      "39 0",
      "Ø¢ Ø±",
      "Ù¾ ÛĮØ´",
      "ĠÙ¾ ÛĮØ´",
      "48 9",
      "ĠÙħ ÙĬÙĦØ§Ø¯",
      "ÙĦ Ø§Ùħ",
      "Ø³ ÛĮÙĨ",
      "ĠØª Ø±",
      "o u",
      "Ø´ ÛĮ",
      "38 9",
      "Ø² Ø±",
      "ÙĬ Ø§ÙĨ",
      "5 36",
      "ĠØ§ÛĮ Ø§ÙĦØ§Øª",
      "i on",
      "37 9",
      "Ùħ Ø³",
      "4 12",
      "35 9",
      "ĠØ¬ ÙĨÙĪ",
      "3 15",
      "47 0",
      "57 0",
      "ÙĪÛĮ Ø³",
      "5 19",
      "39 8",
      "37 8",
      "17 0",
      "16 9",
      "32 9",
      "ĠÙħÛĮÙĦ Ø§Ø¯",
      "38 7",
      "18 9",
      "6 50",
      "18 0",
      "32 6",
      "e s",
      "2 10",
      "5 49",
      "ÙĨÛĮ Øª",
      "5 42",
      "38 0",
      "i t",
      "47 9",
      "36 8",
      "6 20",
      "5 15",
      "ÙĬ Ø²",
      "35 7",
      "Ùħ Ø¨",
      "19 7",
      "ÙĨØ¯ Ú¯Ø§ÙĨ",
      "6 28",
      "Ø± Ùħ",
      "ĠØ¯ ÛĮ",
      "3 30",
      "Ø¯ Ø§Ø±",
      "2 46",
      "ØŃ ÙĦ",
      "ĠØ¢ÙħØ±ÛĮ Ú©Ø§",
      "55 0",
      "ĠÙĨ ÙĪ",
      "39 9",
      "ÙĤ ÙĦ",
      "ĠÚ© Ø§Ø±",
      "Ùģ ÛĮ",
      "2 42",
      "n g",
      "2 12",
      "35 8",
      "Ø§Ø´ Ú¯Ø§Ùĩ",
      "Ø´ Ú¯Ø§Ùĩ",
      "4 10",
      "47 8",
      "Ø´ ÙĪØ±",
      "16 7",
      "49 7",
      "ÙĦ ÙĪÛĮ",
      "17 9",
      "ĠØ´ÙĪØ± Ø§ÛĮ",
      "ÙĨ Ø¬",
      "ĠØ§ÙĦ ÙħÙ¾",
      "36 0",
      "ÙĪØ± Ø¯",
      "ÙĨ Ø¯Ùĩ",
      "t a",
      "15 7",
      "5 37",
      "Ú¯ Ø²",
      "47 7",
      "Ġ 19",
      "48 8",
      "Øª ÙĪÙĨ",
      "48 7",
      "h e",
      "ĠØ¯ ÙĪ",
      "o st",
      "Ùģ ÙĬÙĦ",
      "Ú© ÙĨ",
      "40 9",
      "17 7",
      "17 8",
      "Ø¨ ÙĬ",
      "5 10",
      "ĠØ¨ ÛĮ",
      "Ġ ÙĪÛĮÚ©ÛĮ",
      "ÛĮÙĨ ÛĮ",
      "58 0",
      "ĠÙ¾ Ø±",
      "5 32",
      "i l",
      "27 9",
      "o c",
      "ĠØ´ ÙĩØ±",
      "40 7",
      "ÚĨ Ùĩ",
      "49 8",
      "ĠØ§ ÙĪ",
      "ĠØŃ Ø°",
      "Ø± Ø²Ùĩ",
      "ÙĨ ÙĬØª",
      "26 0",
      "ĠØ¢ Ø±",
      "Ø¨ Ø§",
      "6 18",
      "ĠÙħ ÙĦÛĮ",
      "4 16",
      "36 7",
      "20 0",
      "59 0",
      "19 6",
      "ĠØ¨ Ø§Ø²ÛĮ",
      "Ø¯ ÙĬ",
      "39 6",
      "5 45",
      "20 9",
      "Ùħ Ø§ÛĮ",
      "60 0",
      "Ø§ÙĦ ÙĬ",
      "ĠØ³ Ø±",
      "ĠØ¨Ø± Ú¯Ø²ÛĮ",
      "ĠØ§Ùħ ÙĨÛĮØª",
      "Øª Ø§ÙĨ",
      "27 7",
      "Ġ Û³",
      "ĠØ¨Ø±Ú¯Ø²ÛĮ Ø¯Ùĩ",
      "55 9",
      "47 6",
      "57 9",
      "26 8",
      "ÙĪ ÙĬ",
      "p ng",
      "27 0",
      "58 8",
      "ÙĪ Ø§ÙĩÛĮ",
      "Ø¨Ø§Ø² ÛĮÚ©",
      "ĠÙħ ÙĪ",
      "3 32",
      "26 9",
      "ĠØ§ Ùģ",
      "ÙĨØ§ ØŃ",
      "ĠØ¯Ø± Ø¨",
      "ĠØ¬ Ùĩ",
      "ĠØ ·",
      "18 8",
      "ĠØŃØ° Ùģ",
      "ĠØ´ÙĪØ± Ø§ÙĬ",
      "Ġ P",
      "ÙĨ ÙĪÛĮØ³",
      "6 35",
      "59 9",
      "o g",
      "Ø±Ø® ÙĪØ§ÙĩÛĮ",
      "ÙĨ Ø³",
      "40 8",
      "ĠØ§Ùħ ÙĨÙĬØª",
      "5 12",
      "Ø¯ Ø§",
      "ÙĨØ¸ Ø±Ø®ÙĪØ§ÙĩÛĮ",
      "Ø¨ Ø®Ø´",
      "6 29",
      "ĠÙĨ ÛĮ",
      "30 0",
      "ost er",
      "ÙĪ Ùģ",
      "36 6",
      "ĠØ¨ Ø§",
      "ĠØ¯Ø±Ø¨ Ø§Ø±Ùĩ",
      "55 8",
      "56 0",
      "ÛĮ Ø§ÙĨ",
      "56 8",
      "3 10",
      "18 7",
      "30 7",
      "27 8",
      "2 32",
      "58 9",
      "46 6",
      "Ø¨ Ø¯",
      "ÙħÙĪ Ø¹Ùĩ",
      "55 6",
      "56 7",
      "Ú¯Ø±ÙģØª Ú¯ÛĮ",
      "Ø³ ÛĮØ§",
      "49 6",
      "Ú© Ø§ÙĨ",
      "Øª ÙĨ",
      "ĠØ¯ ÙĪØ±",
      "Ø®ÙĪØ±Ø´ ÛĮØ¯",
      "Ø® Ùĩ",
      "57 7",
      "57 8",
      "ĠØ§ Ø³ØªØ§ÙĨ",
      "Ġ Ø±ÛĮ",
      "3 12",
      "Ø®ÙĪØ±Ø´ ÙĬØ¯",
      "Ġ Û±",
      "20 8",
      "29 8",
      "59 8",
      "Ú¯Ø±ÙģØª Ú¯ÙĬ",
      "55 7",
      "Ø®ÙĪØ±Ø´ÛĮØ¯ Ú¯Ø±ÙģØªÚ¯ÛĮ",
      "59 7",
      "ÙĦÙĪÛĮ Ø²ÛĮ",
      "58 7",
      "30 9",
      "30 8",
      "Ø®ÙĪØ±Ø´ÙĬØ¯ Ú¯Ø±ÙģØªÚ¯ÙĬ",
      "ÛĮ Ø³",
      "37 6",
      "50 0",
      "60 9",
      "ÙģÙĬÙĦ Ùħ",
      "Ø¬ Ø±",
      "Ùħ ÙĪÙĨ",
      "ÙĬÙĪ Ø§Ø³",
      "Ø§ÙĦ Øª",
      "Ùħ Ø¹",
      "29 7",
      "17 6",
      "Ø§Ø± ÙĬ",
      "ÙĪØ± Øª",
      "n t",
      "15 6",
      "ÙħØ¬ ÙħÙĪØ¹Ùĩ",
      "18 6",
      "Ġ p",
      "Ø´Ø± Ú©Øª",
      "48 6",
      "Ùħ Øª",
      "29 9",
      "2 26",
      "Ú© Ø±",
      "35 6",
      "Ġ Ú¯ÙĪ",
      "ĠÛ±Û ·",
      "79 8",
      "Ġ S",
      "60 8",
      "Ø² ÙĪ",
      "40 6",
      "Ø³Ø§ Ø®Øª",
      "60 7",
      "i a",
      "ĠÙĩ Ø§",
      "Ø³ Ø§ÙĨ",
      "Ø§Ø² Ùĩ",
      "ĠÙĨ Ø³",
      "ĠØ§ÙĦÙħÙ¾ ÛĮÚ©",
      "Ġ ÙĦÛĮ",
      "70 9",
      "ĠØª Ø§Ø¨",
      "ÙĪ Ø·",
      "Ø¯ ÙĪØ±",
      "27 6",
      "Ø¨ Ø§Ø±",
      "ĠÙ¾ ÙĬØ´",
      "38 6",
      "ĠÛ±Û ³",
      "âĢ ĵ",
      "ĠØ´ Ø±",
      "16 6",
      "Ġ 20",
      "Ġ C",
      "ÛĮÙĨ Ùĩ",
      "4 15",
      "79 0",
      "ÙĦ Ø³",
      "Û±Û ¸",
      "50 9",
      "50 8",
      "ĠÛ±Û¹Û ¸",
      "ĠØ¯ Ø§ÙĨ",
      "79 9",
      "ĠØ¨ Ø±ÛĮ",
      "at a",
      "Ø¨ Ø±ÛĮ",
      "Ùĥ ÙĬ",
      "2 14",
      "69 0",
      "Ġ d",
      "e l",
      "ÙħØŃ ÙħØ¯",
      "Ġ c",
      "ÙĪÙ¾ Ø§",
      "59 6",
      "ĠØ§ Øª",
      "78 9",
      "ĠØ¬ÙĨÙĪ Ø¨ÛĮ",
      "at ion",
      "ĠØ¨ ÙĨ",
      "Ø· ÙĨ",
      "ĠÙħ Ø±Ø¯",
      "Ø® Ø§Ø¨",
      "ĠÙģ Ø±Ø§ÙĨ",
      "28 7",
      "78 7",
      "Ø¨Ø§Ø² ÛĮ",
      "Ùĥ Ø§",
      "i s",
      "ĠØª ÙĦÙĪÛĮØ²ÛĮ",
      "2 27",
      "Ø³ØªØ§ÙĨ ÛĮ",
      "56 6",
      "me ta",
      "ÙĪØª Ø§",
      "ĠØ³ ÙĬ",
      "28 0",
      "ÙĪ ÙĪ",
      "m a",
      "Ø§Ùħ Ø¨Ø±",
      "Ø§Ø± Ø§ÙĨ",
      "ĠÙĨØ³ Ø®Ùĩ",
      "30 6",
      "Ø¶ ÛĮ",
      "ÙħÙĨ Ø§",
      "Ø´ Ùĩ",
      "Ø§ ØŃ",
      "Ø¨ ÙĪØ±",
      "2 52",
      "ÙĦ Ùħ",
      "Ø± Ø§Ø¯",
      "Ø§Ùħ Ø§",
      "Ø§Ùħ ÛĮ",
      "ÙģÙĦ Ø§ÛĮÙĨ",
      "ĠØ¢ ÙģÙĦØ§ÛĮÙĨ",
      "50 6",
      "Ø´ Ùħ",
      "20 7",
      "26 6",
      "Ø¯Ø± Ú¯Ø§Ùĩ",
      "u s",
      "Ø§ Ø¹",
      "ĠØ³ Ø§ÙĦ",
      "ÙħÙĩ ÙĪØ±ÛĮ",
      "ĠØªÙĦÙĪÛĮØ²ÛĮ ÙĪÙĨÛĮ",
      "Ø§ Ø®",
      "ĠØ¨ ÙĦ",
      "ÙħÙĨØ§ Ø·ÙĤ",
      "Û±Û °",
      "Øµ Ùģ",
      "ĠØ³ Ùģ",
      "Ø±ÙĪ Ø²",
      "i d",
      "50 7",
      "Ø² Ø§Ø¯",
      "79 7",
      "Ø¨ ÙĪÙħ",
      "69 9",
      "Ø¨ Ø§Ø´Ú¯Ø§Ùĩ",
      "ĠØ´Ùħ Ø§ÙĦÛĮ",
      "68 0",
      "70 7",
      "78 0",
      "ÙĨØ§ØŃ ÛĮÙĩ",
      "57 6",
      "Ø§Ø¨ Ø±",
      "Ø³ ÙĦ",
      "ÙĪØ± ÙĬ",
      "r e",
      "ÙħØ§ÙĨ ÛĮ",
      "ĠÛ±Û¹Û ·",
      "Ø±Ø§ÙĨ Ùĩ",
      "78 8",
      "Ùħ ÙĬÙĨ",
      "ĠØ² Ø¯",
      "68 9",
      "Ø± Ø§Ùģ",
      "29 6",
      "ĠÚ© Ø§ÙĨ",
      "Ø³ Ø§Ø²",
      "Ø§ Ú¯",
      "o f",
      "ĠØ¬ Ø§Ùħ",
      "Ø³Øª Ø±",
      "ĠØª Ø§Ø±ÛĮØ®",
      "58 6",
      "Ø¨ ÙĦ",
      "70 0",
      "Ø´ Ø§Ùĩ",
      "Ø§ÛĮ Ø±",
      "Øµ Ø±",
      "ĠÛ±Û ¶",
      "ĠØ¨ ÙĨÛĮØ§ÙĨ",
      "Ø¹ ÙĦÛĮ",
      "ĠØ³ ÙĪ",
      "Ùģ Ø±ÛĮ",
      "Ø§ÙĨ ÙĬ",
      "Ġ A",
      "Ø³ÛĮ ÙĤÛĮ",
      "Øª Ø§",
      "Ø¯Ùĩ Ø§ÛĮ",
      "ĠÙħ Ùĩ",
      "70 8",
      "28 9",
      "Ø³Ø§Ø®Øª ÙħØ§ÙĨ",
      "Ø§ÙĦ ÛĮØ§",
      "ĠØª ÛĮ",
      "ĠØ¨ Ø§Ø²",
      "Ø§ÙĨ ÙĪ",
      "ÙģØ± ÙĨ",
      "ĠØ§Ø± ÙĪÙ¾Ø§",
      "ĠÙģ Ø±",
      "l e",
      "ÙĪÙĨ Ú¯",
      "ÙĦ ÛĮÙĨ",
      "Ø§ÙĦ Ø¯",
      "ĠÙħ Ø§Ø±",
      "ĠÙĪ Ø·ÙĨ",
      "ĠÚ© Ø´ÙĪØ±",
      "90 8",
      "og o",
      "a d",
      "79 6",
      "67 7",
      "Ùĥ ÙĦ",
      "69 8",
      "r y",
      "4 34",
      "Ġ Û´",
      "28 8",
      "Ø¢ Ø¨",
      "ÙĪÙĨ Ø¯",
      "Ø§ÙĨ Ú¯",
      "Ġ -",
      "Ø§ ÙĪØ±",
      "ĠØ´ Ø¯Ùĩ",
      "Ù¾ ÙĦ",
      "ĠØ² Ø¯Ø§ÛĮÛĮ",
      "ĠØ§ÙĨ Øª",
      "ĠØ²Ø¯ Ø§ÙĬÙĬ",
      "20 6",
      "80 8",
      "ÙĨ ÙĬ",
      "ĠÛ±Û¹Û ¶",
      "29 0",
      "Û±Û ³",
      "Ùĥ ÙĪ",
      "Ø± Ø¨ÛĮ",
      "ÙĬÙĨ Ú¯",
      "4 11",
      "ÙĪ ÙĤ",
      "Øª Ø±Ø§ÙĨÙĩ",
      "69 7",
      "60 6",
      "Ø³ Ùģ",
      "68 7",
      "80 0",
      "80 9",
      "ĠØ§ ÙĪØ±",
      "Ġ Ûµ",
      "o t",
      "o v",
      "r a",
      "ĠÛ±Û¹Û ¹Û",
      "68 8",
      "Ù¾ Ø§ÙĨ",
      "1 34",
      "ĠÙħ Ø¬",
      "6 45",
      "Ġ M",
      "ÙĪ Ø³Øª",
      "ĠÚ© ÙĨ",
      "Øª ÙĪØ±",
      "Ġ l",
      "ĠØ¹ ÙĦ",
      "ĠØ¨ ÛĮÙĨ",
      "90 9",
      "Ø¬ ÙĪ",
      "ĠÙĦ Ø±Ø²Ùĩ",
      "Ø·ÙĤ Ùĩ",
      "Ġ t",
      "ÙĤÙĦ Ø¹Ùĩ",
      "Ø² ÙĬ",
      "Øª ÙĦ",
      "Ø²Ø± Ú¯",
      "ĠØª ÙĪ",
      "70 6",
      "ÙĪÙĦ ÛĮ",
      "1 33",
      "Ø² Ø¨Ø§ÙĨ",
      "28 6",
      "Ø±ÙĪ Ùĩ",
      "Ø¨Ø§Ø²ÛĮÚ© ÙĨ",
      "ou nt",
      "67 6",
      "ĠÚ© Ø§Ùħ",
      "Ø² Ø§Ø¯Ùĩ",
      "Ùĩ ÙĨ",
      "ÙĪØ· Ùĩ",
      "Ø§Ø¯ Ø§",
      "ĠØ¯ ÙĬ",
      "ĠØ² ÙĨ",
      "Ú¯ ÙĨ",
      "ĠÙħ Ø¹",
      "Ġ of",
      "Ø« Ø§Ø±",
      "Øª Ø§Ø±ÛĮØ®",
      "ĠÙģ ÙĦ",
      "ĠÙħ Ø³Ú©",
      "ĠÙ¾ ÛĮ",
      "Ø¯Ø§ÙĨ Ø´Ú¯Ø§Ùĩ",
      "ØŃ Ø§Øª",
      "Ġ ÙĬ",
      "Ø´ ØªÛĮ",
      "ĠÙħØŃ ÙħØ¯",
      "Ø§ÛĮ Øª",
      "90 0",
      "Ġ Û¶",
      "Ø§Ø± Ø§",
      "ĠÛ±Û µ",
      "Û° Û°",
      "ØŃÙĦ Ø§ÙĦ",
      "o d",
      "ÙħØŃ ÙĪØ·Ùĩ",
      "ÙĪ ÚĨ",
      "ĠÙĩ ÙĨØ¯",
      "an d",
      "ĠÙħØ³Ú© ÙĪÙĨÛĮ",
      "5 14",
      "3 11",
      "a m",
      "ÙĪÙĨ Ø§",
      "o p",
      "Ġ ÙĪØ±Ø²Ø´",
      "ol or",
      "Ùģ Ø±Ø§ÙĨ",
      "a s",
      "ĠÙħ Ú©",
      "80 7",
      "ÙĪÙĨ Øª",
      "2 34",
      "6 48",
      "Ġp oster",
      "6 10",
      "Ø¨ Ú©",
      "Ú©Ø§Ø± Ø§ÙĨ",
      "ĠÙħ ÙĦ",
      "ĠÙĨ Ú¯",
      "ÙĨ Ø´",
      "ĠÙĥ ÙĦ",
      "88 8",
      "ar t",
      "2 44",
      "Ø¨ ÙĨ",
      "Ø§ÙĨ ØŃÙĦØ§ÙĦ",
      "Ġ f",
      "ĠÙģ ÛĮÙĦÙħ",
      "ĠØªØ§Ø¨ Ø³ØªØ§ÙĨÛĮ",
      "90 7",
      "in g",
      "e d",
      "Ùħ Ø±ÙĬ",
      "3 34",
      "Ø§Ø¨ ÙĤ",
      "ĠÙĨ ÛĮÙĪ",
      "Û±Û ¶",
      "ĠÛ±Û¹Û µ",
      "Ø§ÙĦ Ø§",
      "Ø³ ÙĬÙĨ",
      "Ø² Ø§Ø±",
      "ĠØ§Ø³ ÙĦØ§Ùħ",
      "99 8",
      "Ø¶ Ø§",
      "ÙĪ Ø²Ùĩ",
      "Ùħ ÙĬ",
      "Ùģ Ø§",
      "Ú¯Ø± Ø§ÙĨ",
      "ÙĤ Ø§",
      "Ø¬ Ø§Ùħ",
      "Ġ L",
      "ØªØ§ÙĨ ÛĮØ§",
      "Ø±ÙĪ ÛĮ",
      "ĠØ¬ ÙĨÚ¯",
      "Ú¯ ÙĪØ±",
      "6 46",
      "Û±Û ·",
      "ĠØ¬ ÙħÙĩÙĪØ±ÛĮ",
      "ĠÚ¯ ÙĦ",
      "Ġ Û·",
      "Û±Û ²",
      "c olor",
      "Øº Ø±Ø§Ùģ",
      "6 49",
      "Ġ ÛĮÚ©",
      "ĠÙĩ ÙĪ",
      "6 40",
      "ĠÚĺ ÙĪØ¦",
      "ount ry",
      "Ø³Øª Ùĩ",
      "Ø² Ø§Ø³",
      "ĠØ¨ Ø²Ø±Ú¯",
      "Ø¯ Ùħ",
      "Ø¶ÛĮ ØŃØ§Øª",
      "ĠØ¬ ÛĮ",
      "5 34",
      "Ø³ÛĮ Ùĩ",
      "ØªÙĪ Ø¶ÛĮØŃØ§Øª",
      "4 14",
      "2 11",
      "Ø§ÙĨ Ø§",
      "88 9",
      "ÙĪ Ø§Ø±",
      "Ø¢ ÙĨ",
      "Ø¨ Øª",
      "Ø¨Ø¯ Ø§ÙĦ",
      "ÙĪÙĨ ÙĬ",
      "ÙĪ Ø§ÙĦ",
      "4 33",
      "Ġ Ø²ÛĮ",
      "Ġd ata",
      "ĠÚ© Ø±",
      "ĠØ¯Ø± Ø¬Ùĩ",
      "ĠØªØ§Ø±ÛĮØ® ÛĮ",
      "10 5",
      "C ountry",
      "Ø² ÙĨ",
      "ĠÙĨ Ø¸",
      "Ø´ÙĨ Ø§Ø³ÛĮ",
      "Ø³ÛĮ Ø¯",
      "89 7",
      "a e",
      "99 9",
      "Ġ B",
      "6 19",
      "Ø¯Ùĩ Ø³ØªØ§ÙĨ",
      "Ġ Û¸",
      "ĠØ¯ Ø§Ø±",
      "77 7",
      "6 12",
      "Ø´ Ú©",
      "Ø§ÛĮ Ø§ÙĨ",
      "Ø§ÙĨ Ø¯ÛĮ",
      "ĠØ§Ø³Øª Ø±",
      "Ú¯Ø² Ø§Ø³",
      "ÛĮ Ø§ÛĮ",
      "Ġ ÛĮÙĪ",
      "2 41",
      "Ø¨Ø± Ø¯",
      "ĠØ³ Ø§Ø²Ùĩ",
      "6 37",
      "ĠØ§ ÙĪÙĦ",
      "Û±Û ¹",
      "Ø§Ø¨ Ø±ÛĮ",
      "6 26",
      "Ú¯ Ø±ÛĮ",
      "Øª Ø§Ø¨",
      "6 16",
      "n a",
      "ĠØ¯ ÙĪÙħ",
      "Ù¾ ÙĬ",
      "6 32",
      "ĠØ¢ÙħØ±ÛĮ Ú©",
      "s h",
      "ĠØ¨Ø±ÛĮ ØªØ§ÙĨÛĮØ§",
      "42 5",
      "Ú¯ÙĦ Ø³ØªØ§ÙĨ",
      "47 5",
      "Ù¾ Øª",
      "2 33",
      "6 36",
      "ÙĨØ¯ Ø§ÙĨ",
      "Ø´Øª Ùĩ",
      "Ø±ÙĪ Ø³",
      "Ø± Ø¬",
      "Ø® Ø§ÙĨ",
      "Ø§ Ú©ÛĮ",
      "Û±Û ¹Û",
      "ÙĪØ± Ú©",
      "Û±Û ´",
      "Ø¹ ÛĮ",
      "ĠÛ±Û ²",
      "ĠÙģØ±Ø§ÙĨ Ø³Ùĩ",
      "6 38",
      "Ùħ Ø§Ø±ÛĮ",
      "ÚĨ ÛĮ",
      "u r",
      "Øª Ø³",
      "Ø±ÛĮ Ùĩ",
      "Û± Û±",
      "ĠÛ±Û °",
      "6 15",
      "ÙĪØ±Ø²Ø´ Ú©Ø§Ø±Ø§ÙĨ",
      "6 17",
      "c h",
      "e t",
      "ÙĪÛĮ ÛĮ",
      "ĠØª Ú¯Ø²Ø§Ø³",
      "3 14",
      "Ù¾Ø± Ø§Øª",
      "ÙĪ Ùĥ",
      "ĠÛ±Û¹Û ´",
      "Ø´ Ø§Ø±",
      "ĠØ¬Ùĩ Ø§ÙĨÛĮ",
      "Øª ÙĬ",
      "ĠØ¹ ÙĦÛĮ",
      "Ø² Ø§",
      "ĠØ² Ø§Ø¯Ùĩ",
      "ĠØ§ Ø¯",
      "12 5",
      "ÙĦ Ø²",
      "Ø±Ùĩ ÙĨÚ¯",
      "88 7",
      "Ø§Øª ÛĮ",
      "ĠØ® Ø§ÙĨ",
      "ĠØ¨ ÙĬ",
      "45 5",
      "Ġ D",
      "37 5",
      "35 5",
      "3 13",
      "Ø² Ø¨",
      "ÙĤ ÙħØ±ÛĮ",
      "ĠØº Ø±Ø¨ÛĮ",
      "Ġ ma",
      "Ú©ÙĪ Ùĩ",
      "89 8",
      "19 5",
      "ÙĪØ± Ø§",
      "17 5",
      "Ġ F",
      "Ø¢ Ø«Ø§Ø±",
      "ĠØ¢ÙĦ ÙħØ§ÙĨ",
      "ĠÛ±Û ´",
      "ÙħÙĦ ÙĦÛĮ",
      "ĠÚ© Ùĩ",
      "ĠÚ© Ø§ÙĦÛĮ",
      "Ø§Øª Ø±",
      "4 13",
      "ÙĪÙĦ ÛĮÙĨ",
      "99 7",
      "ÙĤ ÙĬ",
      "Ø¢ÙĦ Ø¨ÙĪÙħ",
      "ĠÛ±Û¹Û ³",
      "6 42",
      "ØŃ Ùħ",
      "Ġ s",
      "32 4",
      "ÙĬÙĦ ÙĬ",
      "ÙģØ±ÙĨ ÛĮØ§",
      "Ú¯Ø²ÛĮ Ø¯ÙĨ",
      "Ùħ Ø²",
      "Ùĥ Ø§Ø±",
      "Ø§Ùģ Ø±Ø§Ø¯",
      "Ú© Ø±ÛĮ",
      "7 40",
      "ĠØ¹ ÙĦÙĬ",
      "ĠÛ²Û° Û²",
      "ĠÙĤ ÙĦ",
      "2 13",
      "39 5",
      "Ø¸ Øª",
      "Ø¯ ÙĪÙĨ",
      "Ø³Øª Ø§",
      "Ø³ Ø§Ùħ",
      "Ø³Ø§Ø² ÙħØ§ÙĨ",
      "Ø§Ø³ ÙĬ",
      "Û±Û µ",
      "Ø¬ Ø¯",
      "47 1",
      "Ø¬ ØºØ±Ø§Ùģ",
      "ÙĪÙĦ ÙĪ",
      "Øª Ùĩ",
      "Ø¦ ÙĪ",
      "Ø³ Ø§ÙĦ",
      "ĠØ´ Ø§Ùĩ",
      "17 4",
      "19 1",
      "Ø³ Ùħ",
      "35 2",
      "46 5",
      "ÙĪØ¯ ÙħØ§ÙĨ",
      "12 3",
      "ĠÙĨ Ø§Ùħ",
      "Ø±ÙĪ ÛĮØ¯",
      "Ø¬ ÙĨÚ¯",
      "15 2",
      "Ø¬ Ø¹",
      "15 3",
      "or t",
      "Ùĩ Ø§ÙĨ",
      "ĠÚĺ Ø§Ù¾",
      "Ø³ Ú©ÛĮ",
      "Ø® ÙĪØ§ÙĨ",
      "Ú©Øª Ø§Ø¨",
      "oc ation",
      "17 1",
      "ĠØ§ÙĬ Ø±Ø§ÙĨ",
      "Ġma p",
      "38 5",
      "ĠÙĨÚ¯ Ø§Ø±Ùĩ",
      "ÙĪÙĦ Øª",
      "Ø§ÙĨ Ø¯Ø±",
      "ĠÚ©Ø§ÙĦÛĮ ÙģØ±ÙĨÛĮØ§",
      "68 6",
      "Ø³Øª ÛĮ",
      "15 5",
      "15 4",
      "ÙĪÛĮ Ùĩ",
      "ØŃ ÛĮ",
      "Ġ 2",
      "ĠØ³ ÙĪØ¦",
      "49 2",
      "Ø±ÛĮ Ú©",
      "ÙĦ Ø±Ø²Ùĩ",
      "o s",
      "Ùģ Ùĩ",
      "ÙĪØ± Ø¬",
      "Ø® Ø±",
      "69 6",
      "Ú¯ Ø±ÙĪÙĩ",
      "T he",
      "Ø¨ Ø§Ø³",
      "ÙĬÙĨ ÙĬ",
      "Ø¨Ø± Ú¯",
      "39 4",
      "Ø§ÛĮ Ø²Ùĩ",
      "ĠØ´ ÛĮ",
      "ĠØ§ÙĨ Ú¯ÙĦØ³ØªØ§ÙĨ",
      "12 1",
      "ÙĨØ¯ ÛĮ",
      "ÙĪØ± ÙĨ",
      "Øº Ø§ÙĨ",
      "48 1",
      "19 2",
      "10 2",
      "Ø§ ÙĪÙĨ",
      "47 4",
      "ĠØ§ Ø¨",
      "L ocation",
      "00 8",
      "ÛĮ Ø§Ø¯",
      "Ø§ ÙĪÙĦ",
      "Ġ I",
      "ÛĮÙĨ Ø§",
      "18 4",
      "ÙĪØ± ÙĪ",
      "b o",
      "00 9",
      "42 2",
      "Úĺ ÛĮ",
      "36 5",
      "Ø§Øª Ùĩ",
      "37 2",
      "Ġl ogo",
      "ĠØ¢ ÙĨ",
      "l a",
      "il m",
      "38 1",
      "Ø¯Ø± Ú¯Ø°",
      "11 4",
      "ĠØ´ Ùĩ",
      "38 2",
      "Ùĥ Ø§ÙĨ",
      "78 6",
      "Ø¬ØºØ±Ø§Ùģ ÛĮØ§ÛĮ",
      "Ø§Ø¨ Ø·",
      "36 1",
      "30 3",
      "ÙĨØ¯ Ø±",
      "ĠØ§ ÙĤ",
      "6 47",
      "11 1",
      "6 27",
      "ØŃ Ø«",
      "46 2",
      "ĠÚ© ÛĮ",
      "ÙģØª Ùĩ",
      "Ø± ÙħØ§ÙĨ",
      "Ø®Ø§Ø¨ Ø§Øª",
      "30 1",
      "12 2",
      "18 1",
      "34 4",
      "ØªÛĮ Ùħ",
      "Ú¯Ø± Ø¯",
      "i r",
      "Ø±ÙĪÛĮØ¯ Ø§Ø¯Ùĩ",
      "Ø±ÛĮ Ø´",
      "Ø¹ Ø§Øª",
      "Ø³ÛĮØ§ Ø³Øª",
      "Ġ R",
      "48 5",
      "Ø§Ùħ Ú¯Ø§Ùĩ",
      "10 1",
      "80 6",
      "Ø¦ ÛĮ",
      "Ø³Øª Ú¯Ø§Ùĩ",
      "ÙħØ³ Ø§Ø¨ÙĤ",
      "Ø¨Ø§Ø²ÛĮÚ© ÙĨØ§ÙĨ",
      "Ú© Ø²ÛĮ",
      "Ġ G",
      "32 5",
      "16 5",
      "Ġ ÙĩØ±",
      "ĠØ¨ Ø§Ø±",
      "Øª Ø´",
      "18 5",
      "45 2",
      "49 5",
      "10 3",
      "Ú© Ø§Øª",
      "e m",
      "42 1",
      "12 4",
      "ĠØ³ ÙĦ",
      "ĠØ¢ Ø¨",
      "ĠØ§ Ø·",
      "32 3",
      "32 2",
      "30 2",
      "44 1",
      "Ùħ Ø§ÙĦ",
      "ĠÙħ ÙĤ",
      "Ø§ÙĨØ¯ÛĮ Ø³",
      "16 2",
      "Ùħ ÛĮØ±",
      "ÙĪÙĦ Ø§",
      "66 6",
      "00 0",
      "ÙĪØ± Ùĩ",
      "36 3",
      "46 1",
      "Ø§ÙĪ Ø§",
      "40 5",
      "45 1",
      "7 55",
      "10 4",
      "17 2",
      "ĠØ ¦",
      "ÙĪ Ø¯ÛĮ",
      "ĠØ³ ÙĨ",
      "ĠÙħ ÙĪÙĨ",
      "Ú© Ùĩ",
      "ÙħØ¨ ØŃØ«",
      "40 4",
      "18 3",
      "48 3",
      "Ø§Ø¨ Ø§ÙħØ§",
      "ØªØ¨ Ø§Ø±",
      "ÙĪÙĦ Ùĩ",
      "42 3",
      "36 4",
      "48 2",
      "ĠÙ¾ Ø±ÙĪ",
      "37 3",
      "na me",
      "45 4",
      "16 1",
      "48 4",
      "35 1",
      "Ø§Ø± Ø³ØªØ§ÙĨ",
      "33 1",
      "Ù¾Ø±Ø§Øª ÙĪØ±ÛĮ",
      "ÙĪØ±ÛĮ Ùĩ",
      "Ġ 1",
      "ĠÙħ ÛĮÙĦØ§Ø¯ÛĮ",
      "27 5",
      "ĠÙ¾ ÙĬ",
      "Ù¾Ø§ÙĨ ÛĮØ§",
      "ĠÙħ Ø³",
      "ÛĮÙĨ ÙĪ",
      "29 5",
      "13 1",
      "Ú© ÙĦÛĮ",
      "ĠØ§ÛĮ Øª",
      "ĠÙĪØ±Ø²Ø´ ÛĮ",
      "34 3",
      "Ø´ ÙĬ",
      "e g",
      "87 6",
      "Øª Øµ",
      "ÙĩØ± Ùĩ",
      "ÙĩØ± Ø§ÙĨ",
      "ĠØ´ ÙĨ",
      "42 4",
      "15 1",
      "16 4",
      "316 6",
      "I S",
      "Ø§Ø¯ ÙĪ",
      "Ùĩ Ø§Ø±",
      "14 3",
      "35 4",
      "ÙĤ Ùĩ",
      "ÙħÙĨ Ø·ÙĤÙĩ",
      "ØŃ Ø³ÛĮÙĨ",
      "33 3",
      "39 2",
      "20 5",
      "Ø¯ ÙĦ",
      "Ù¾ ÙĪØ¯ÙħØ§ÙĨ",
      "47 3",
      "art y",
      "i g",
      "Ø´ ÙħÙĩ",
      "22 5",
      "45 3",
      "14 4",
      "34 1",
      "47 2",
      "00 7",
      "ÙĪÙĨ Ùĩ",
      "46 3",
      "Ùĥ Ø±",
      "Ø¨ Ø§Ø¨",
      "Ùĥ Ø³",
      "ĠØ¨ Ø§Ø´Ú¯Ø§Ùĩ",
      "Ø² ÙħÙĬÙĨ",
      "36 2",
      "49 1",
      "6 56",
      "38 3",
      "44 3",
      "Ø§ Ø·",
      "ĠØ´Ø± ÙĤÛĮ",
      "ĠØ¯Ø§ÙĨ Ø´Ú¯Ø§Ùĩ",
      "49 3",
      "Ùħ Ø§Ø±Ú©",
      "ĠØ³ Ø§",
      "ĠÙħÙĪ Ø³ÛĮÙĤÛĮ",
      "ÙĪØ± Ø§ÙĨ",
      "Ø§ÙĬ ÙĨ",
      "Ø§ÙĨØ¯ ÙĬØ³",
      "30 4",
      "i st",
      "ĠÛ±Û¹Û ¹",
      "ĠØ¢ Ø³ÛĮØ§",
      "Ø´Øª Ú¯Ø§ÙĨ",
      "19 3",
      "59 2",
      "37 4",
      "59 5",
      "11 3",
      "ĠØ¯ÙĪØ± Ùĩ",
      "26 2",
      "Ø²ÛĮ Ø±Ùĩ",
      "c t",
      "ĠÙĥ Ø§Ø±",
      "26 5",
      "Ø¢ ÛĮ",
      "Ø¯ Ø§Ø±ÛĮ",
      "Ø¯ Ø§Ùħ",
      "Øµ ÙĦ",
      "30 5",
      "40 2",
      ". .",
      "18 2",
      "6 22",
      "Ø¬ ÙĬ",
      "IS O",
      "58 5",
      "ĠØŃ Ø§Ø¬",
      "Ù¾ ÙĪØ±",
      "52 2",
      "89 6",
      "57 5",
      "ĠÙ¾ Ø§Ø±",
      "ĠØ³ ÙĨÚ¯",
      "Ùħ ÙĪØ±",
      "ĠÙģÙĦ ÙĪØ±",
      "Ø¯ ÛĮÙĨ",
      "ĠØª ÙĨ",
      "Ġ T",
      "46 4",
      "ÙħÙĪ Ø³ÛĮÙĤÛĮ",
      "c e",
      "Ø² ÛĮÙĦ",
      "35 3",
      "52 5",
      "bo x",
      "ÙħÙĪ Ø²Ùĩ",
      "Ø¨Ø± Øª",
      "55 2",
      "Ùħ Ø§Ùĩ",
      "49 4",
      "ĠÚĺØ§Ù¾ ÙĨ",
      "Ùĩ ÛĮ",
      "ĠÙģ Ø§Ø±",
      "ĠØ¢ ÙģØ±ÛĮ",
      "ĠÙĪÛĮ Ø±Ø¬",
      "ĠØ§ ÙĪØª",
      "56 1",
      "70 5",
      "Ø¯ Ø±ÛĮ",
      "38 4",
      "ĠÙħ ÙĪØ±",
      "Ú¯ Ø§",
      "Ùĥ Øª",
      "Ø® ÙĪØ§",
      ") .",
      "19 4",
      "40 1",
      "ÙĤ Ø§ÛĮ",
      "40 3",
      "10 80",
      "43 1",
      "Ø¨ ÙĪØª",
      "39 3",
      "ÙĪÙħ ÛĮ",
      "ĠÛ±Û¹ Û²",
      "ÙĪÙĦ Ùģ",
      "ĠØ¬ ÙĬ",
      "Ġ Ø±ÙĪØ¯",
      "Ø¯Ø±Ú¯Ø° Ø´ØªÚ¯Ø§ÙĨ",
      "ÛĮØ§Ø¯ Ø¨ÙĪ",
      "ĠÙħ Ø§Ø³",
      "79 1",
      "Ø´ ÙĨÙĪ",
      "32 1",
      "50 5",
      "16 3",
      "77 6",
      "Ø§Ø¨ ÛĮ",
      "ĠØ§ ØŃ",
      "Ø¹ ÙĦÙĬ",
      "88 6",
      "Ùĥ ÙĨ",
      "27 4",
      "ÙĪÛĮ Øª",
      "ØŃ Ø³ÙĨ",
      "ĠÚ©Ø§Ùħ ÙĦ",
      "Ø± ÙĤ",
      "ĠÙĤÙĦ Ø¹Ùĩ",
      "28 5",
      "Øµ ÛĮ",
      "ĠØ§ÛĮ Ø±",
      "99 6",
      "39 1",
      "57 3",
      "60 1",
      "Ùĩ ÙĨØ±",
      "Ø³ Ø§ÛĮ",
      "Ø¨Ø§ Øº",
      "17 3",
      "ÙĬÙĨ Ùĩ",
      "90 6",
      "ĠÛĮ ÙĪÙĨ",
      "ĠÙħ ÛĮÙĨÙĩ",
      "ØŃ Ø§Ø¯",
      "ÛĮØ§Ø¯Ø¨ÙĪ Ø¯ÙĩØ§ÛĮ",
      "ĠP arty",
      "37 1",
      "20 1",
      "Ø±ÙĪ Ø§Ø¨Ø·",
      "Ġ ÙĪØ±",
      "I I",
      "Ø±Ø§ Ø¦",
      "ĠØ¬ Ø§ÙĨ",
      "ĠØº Ø±Ø¨",
      "ĠÙħÙĨ ØŃÙĦ",
      "56 5",
      "Ø¬Ø¹ Ø¨Ùĩ",
      "Ġ N",
      "s er",
      "20 4",
      "78 3",
      "ØªØ± Ø§Ø¨Ø±ÛĮ",
      "Ø¬ Ø§",
      "ĠØ³ Ø¨",
      "ĠØ¯ ÙĦ",
      "ÙĨ ÙĤ",
      "Ùģ ÙĬ",
      "I n",
      "Øª Ø±ÛĮ",
      "Ùģ ÙĨ",
      "Ùħ ÙĬÙĦØ§Ø¯",
      "ÙĪÛĮ Ø¯",
      "ÙĪØ±Ø²Ø´ Ú¯Ø§Ùĩ",
      "ÙħÙĪ Ø²Ø´",
      "ÙħØ³Ø§Ø¨ÙĤ Ø§Øª",
      "a g",
      "ØŃ ÙĪØ²Ùĩ",
      "ĠØ§Ø³ Ù¾Ø§ÙĨÛĮØ§",
      "ĠÚĨ ÛĮÙĨ",
      "44 4",
      "u m",
      "11 35",
      "57 1",
      "ÙħÙĬÙĦØ§Ø¯ ÙĬ",
      "v g",
      "ĠØ± Ø§Ùĩ",
      "Ġ Û¹Û",
      "Ø¯ Ø³",
      "ÙĦ Ø§ÙĨ",
      "ĠÙĪ Ø§Ø´",
      "Ø³Øª ÙĪÙĨ",
      "Ùģ Ø±Ø¯",
      "Ùħ Ø§ÙĬ",
      "Ġ W",
      "Ùħ Ø±Ø¯",
      "Ø¹ Øª",
      "Û¹ Û°",
      "Ø´ Ø§ÙĨ",
      "Ú© Ø´ØªÛĮ",
      "Ø±ÛĮ Ø²",
      "Ø¨ÙĪØ± Ú¯",
      "22 4",
      "Ø¬ Ø§ÛĮØ²Ùĩ",
      "Ø´ÙĨÙĪ Ø§Ø±Ùĩ",
      "ÙħÙĨ Ø³ØªØ§ÙĨ",
      "Ø§ÙĦ ÙĦÙĩ",
      "ĠØ§ Ø´",
      "69 5",
      "52 4",
      "i v",
      "ÙĨÙĩ Ø§Ø±",
      "67 2",
      "ĠØ² ÙĨØ§ÙĨ",
      "Ø° Ø±Ø¨",
      "58 3",
      "Ġ H",
      "ÙĨ ØµÙģ",
      "50 2",
      "Ø· Ø§ÙĨ",
      "ÙĪÛĮ ÙĪØ±Ú©",
      "s vg",
      "ĠØ¬ ÙĨ",
      "12 39",
      "20 2",
      "Ø±ÙĪÛĮØ¯Ø§Ø¯Ùĩ Ø§ÛĮ",
      "Ùħ ÙĪØª",
      "55 4",
      "ĠØª ÙĪØ³",
      "56 2",
      "ÛĮØ¯ Ø§",
      "11 45",
      "Ø± Ø§ÛĮ",
      "ĠØ±ÙĪ Ø³ÛĮÙĩ",
      "55 5",
      "ĠØ§ÙĬ Ø§ÙĦØ§Øª",
      "Ø§ÛĮ Ø¹",
      "90 3",
      "59 3",
      "ĠÙħ ÙĦÙĬ",
      "ĠÙĦ ÙĪ",
      "Ø§ÙĦ ÙħÙĦÙĦÛĮ",
      "ĠÙĨØ¸ Ø§ÙħÛĮ",
      "28 2",
      "14 1",
      "i an",
      "Ùħ Ø§ÙĩÛĮ",
      "Ø²ÛĮ Ú©",
      "69 4",
      "67 1",
      "Ø¨Ø§Ø²ÛĮ Ú¯Ø±Ø§ÙĨ",
      "57 4",
      "78 5",
      "70 4",
      "Ø§ÙĨØª Ø®Ø§Ø¨Ø§Øª",
      "Ùĩ ÙĨÚ¯",
      "ĠØ¨ Ø§ÙĦ",
      "56 3",
      "57 2",
      "Ø§Ø± ÙĪ",
      "ĠØ¬Ùĩ Ø§ÙĨ",
      "en t",
      "ĠØ§Ø³ÙĦØ§Ùħ ÛĮ",
      "8 28",
      "Ø§Ø¯ Ø±",
      "6 68",
      "7 12",
      "ÙĨ ÙħØ§ÛĮ",
      "Ø¬ ÙĨ",
      "29 4",
      "10 59",
      "26 1",
      "10 09",
      "Û³ Û°",
      "7 22",
      "55 1",
      "Ø§Ø´ ÛĮ",
      "ĠÛ²Û°Û±Û °",
      "79 4",
      "59 1",
      "58 2",
      "25 4",
      "ÙĦÛĮÙĨ ÙĪÛĮ",
      "Ø§ÛĮ Ø²",
      "28 3",
      "Ùħ Ø¯ÛĮ",
      "ÙĤ Ø§ÙĨ",
      "i e",
      "26 4",
      "78 1",
      "ĠÙĩ ÛĮ",
      "50 3",
      "Ø¹ Ø¨Ø¯Ø§ÙĦ",
      "ĠØ§Ø· ÙĦØ§",
      "U ser",
      "Ø§Øª ÙĪ",
      "Ú©ÛĮ Ùĩ",
      "Øº Ø§Ø²",
      "ĠÙħ Ø§ÙĦ",
      "ÙĨ ÙĪØ±",
      "ÙĪÙĨ Ø²",
      "ĠØ§ÛĮØª Ø§ÙĦÛĮØ§",
      "Ø¯Ø§ÙĨ Ø§ÙĨ",
      "Ø³ ÙĨÚ¯",
      "28 1",
      "ĠÙĨ ÙĪØ±",
      "Ù¾ ÙĪ",
      "ĠØ§ÙĦ ÙĦÙĩ",
      "Ø¯Ø± Ùĩ",
      "ĠØª ÙĬ",
      "67 5",
      "Ø³Øª Ùħ",
      "11 32",
      "58 1",
      "Ø¯Ùĩ Ùĩ",
      "Ø´ ÛĮØ±",
      "t h",
      "Ø§ØŃ ÙħØ¯",
      "11 37",
      "22 1",
      "ĠÙħ ÙĤØ§ÙĦÙĩ",
      "ĠÙĨÛĮ ÙĪÛĮÙĪØ±Ú©",
      "10 60",
      "50 4",
      "Ùģ ÙĪØ±Ø¯",
      "27 1",
      "Ø§Ø³ Ùħ",
      "ØŃ Ùĩ",
      "Ù¾ ÙĨ",
      "ĠÚ©Ø§ÙĨ Ø§Ø¯Ø§",
      "ĠÙģ ÙĨ",
      "ÙħÛĮÙĨ Ø§",
      "79 2",
      "Ùĥ Ùĩ",
      "68 4",
      "ÙĨÛĮ Ú©",
      "Ùģ ÙĪØªØ¨Ø§ÙĦ",
      "ĠØª ÙĩØ±Ø§ÙĨ",
      "ĠÚ©ÙĦ Ø§Ø³",
      "Ġ K",
      "ÛĮØ´ ÛĮ",
      "ØºØ§ÙĨ Ø³ØªØ§ÙĨ",
      "Ø§ÙĦ ÙĪ",
      "ĠÙħØŃ Ø§Ùģ",
      "70 2",
      "Ùħ ÙĨØ¯",
      "Øª Øº",
      "8 18",
      "Ø²Ø§Ø¯ Ú¯Ø§ÙĨ",
      "Ø®Øª Ùĩ",
      "ĠÙĩ ÙĨ",
      "52 1",
      "10 00",
      "28 4",
      "97 6",
      "e p",
      "Ø¯ Ø§Ø¯",
      "Úĺ ÙĨ",
      "67 4",
      "ov er",
      "u n",
      "10 48",
      "26 3",
      "ÚĨ Ø§Ùĩ",
      "ĠÚ¯Ø± Ø¯",
      "ÙĪ ÛĮÙĦ",
      "ÙĦ Ø±",
      "78 2",
      "69 3",
      "68 3",
      "11 15",
      "ĠÙĤ ÙĩØ±",
      "ÚĨ Ø±Ø®",
      "Ûµ Û°",
      "11 46",
      "70 1",
      "ĠÛ² Û±",
      "52 3",
      "ØªØ± ÛĮÙĨ",
      "65 4",
      "66 2",
      "68 1",
      "65 3",
      "66 5",
      "Ùħ Ø¯Ø±",
      "Ø¨ Ø§Øª",
      "ĠÙĨ ÙĤ",
      "ÙĪÙĦÛĮÙĨ Ø§ÛĮ",
      "10 99",
      "Ġ ÛĮØ§",
      "Ġ 3166",
      "ÙĩØ§ÛĮ ÙĪ",
      "Ø¨ Ø§ÛĮ",
      "Ø± ÙĪÙĨ",
      "r o",
      "59 4",
      "ĠÙ¾ ÙĦ",
      "Ù¾ Ø§ÛĮ",
      "ÛĮ Ø§ÛĮÛĮ",
      "ĠØ¢ÙħØ±ÛĮÚ© Ø§ÛĮ",
      "ĠÙĦ ÙĪØ¦",
      "ĠØª Ù¾Ùĩ",
      "10 90",
      "Ø® ÙĪ",
      "Ø§Ùħ Ø²Ø§Ø¯Ùĩ",
      "ÙħÙĪ Ø¯",
      "ĠÙ¾ ÙĨØ³",
      "ĠØ§ÛĮ ÙĦÛĮÙĨÙĪÛĮ",
      "ĠØŃ Ø³ÛĮÙĨ",
      "ĠÙħ ÙĬ",
      "Ø§ Øµ",
      "8 58",
      "ĠÙħØ± Ú©Ø²ÛĮ",
      "ĠØ³ ÙĪØªØ§",
      "27 3",
      "ĠÙĦ Ùĩ",
      "70 3",
      "79 5",
      "Ø³ Ø¨",
      "i p",
      "7 39",
      "ĠÙħ Ø§Ùĩ",
      "ÙĨ Ø§ÙĪ",
      "ĠØ§ÙĨØª Ø®Ø§Ø¨",
      "h a",
      "Ù¾ ÙĬØ´",
      "ĠÙħØŃØ§Ùģ Ø¸Øª",
      "Ø³ Ø§ÙĨÙĩ",
      "8 20",
      "10 47",
      "25 1",
      "ĠØ§Ø·ÙĦØ§ Ø¹Ø§Øª",
      "27 2",
      "ĠÙĪ ÙĦ",
      "60 5",
      "11 47",
      "ĠÚ© ÙĨØª",
      "ĠÚ© ÙĪ",
      "69 2",
      "ĠÚ© Ø±Ùĩ",
      "Û¶ Û°",
      "98 6",
      "Ú¯ ÙħÛĮÙĨØ§",
      "i f",
      "ĠÙĩ ÙĦÙĨØ¯",
      "7 50",
      "68 5",
      "Ø· Ø±",
      "Ø´ÙĩØ± ÙĩØ§ÛĮ",
      "7 15",
      "7 20",
      "ĠØ¹ÙĦ ÛĮØ§",
      "ÙĪÛĮ Ø±",
      "Ø¯ Ø§ÙĦ",
      "Ġ m",
      "69 1",
      "Ø±ÙĪ Ø³ØªØ§",
      "77 5",
      "10 26",
      "Ġ E",
      "Ø¨ÛĮ Ø§Øª",
      "ĠØ² Ø¨Ø§ÙĨ",
      "8 29",
      "ĠØ³ ÙĪÙħ",
      "8 27",
      "ĠØ¨Ø§Ø² ÙĬ",
      "ĠØ¢ ÙĪØ±",
      "Ø ¡",
      "ÙĦÙĪ Ø¦",
      "ØŃ Ø²Ø¨",
      "Úĺ Ø§ÙĨ",
      "8 55",
      "60 2",
      "er s",
      "sh ort",
      "ĠØ± ÙĬ",
      "ĠØ§ÙĪ ÙĩØ§ÛĮÙĪ",
      "Ġf ilm",
      "ĠÚ© Ø±ÛĮ",
      "Ø§Ú© Ø³",
      "Ø§Ø¨ Øª",
      "Ùĩ Ùħ",
      "62 1",
      "7 37",
      "7 38",
      "60 3",
      "10 68",
      "ÛĮÙĨÚ¯ ØªÙĨ",
      "60 4",
      "Ø§Ø³ Ú©Ø§",
      "Ġt he",
      "10 58",
      "ĠØ³Ùģ ÙĦÛĮ",
      "7 56",
      "8 15",
      "Ø§ÙĬ Øª",
      "ÙĪØª ÙĪ",
      "62 5",
      "Ùħ Ø§ÛĮÛĮ",
      "ĠØ¨ Ø§Ø³ØªØ§ÙĨ",
      "ĠØ¬ ÙĪØ±Ø¬",
      "10 55",
      "ĠÚ©Ø§Ø± ÙĪÙĦÛĮÙĨØ§ÛĮ",
      "ĠØ§Ø³ Ù¾",
      "10 79",
      "Ùħ Ø§Øª",
      "12 29",
      "Ø§ÙĬ Ø±",
      "ĠÙĤ Ø§Ø±Ùĩ",
      "ĠÛ±Û¹ Û°",
      "u l",
      "Ø§Ø³ Ø§ÙĨ",
      "7 18",
      "Ø² Ø§Ø±Ùĩ",
      "ĠÙģ ÛĮ",
      "10 39",
      "Ø¢ ÙĨØª",
      "6 57",
      "68 2",
      "80 1",
      "Ú¯ÛĮ Ø±ÛĮ",
      "ĠØ¨ Ø®Ø´",
      "7 79",
      "Ø§ÙĨ Ø¬",
      "77 4",
      "ĠØ¨ Ø±ÙĪ",
      "ĠÙħÙĨ Ø·ÙĤÙĩ",
      "ÙħØ§ Ø¹",
      "short name",
      "ÙħØ³ Ø¬Ø¯",
      "7 78",
      "ÙĨ Ø²",
      "Ø® Øµ",
      "Û¸ Û°",
      "55 3",
      "ĠÙħÙĬÙĦØ§Ø¯ ÙĬ",
      "ÙĨØ¯ Ú¯ÛĮ",
      "ÙĪÙĦ Ø¯",
      "8 17",
      "87 5",
      "22 3",
      "Ø®ÙĪØ§ Ø³Øª",
      "10 70",
      "ĠÙħØ±Ø¯ Ø§ÙĨ",
      "Ø ¤",
      "8 26",
      "ĠØ¨ ÙĪ",
      "ÙĪÛĮ Ø§ÙĨ",
      "Ø² Ø§ÛĮØ±",
      "Ø±Ø§ ÙĤ",
      "9 39",
      "ĠØ³ Ø§Ø²",
      "ØŃ Ø§Ø¬",
      "ĠØ§Ø³ØªØ± Ø§ÙĦÛĮØ§",
      "ĠØ¢ Ø¨ÛĮ",
      "10 56",
      "ĠØ³ Ø§ÙĨ",
      "Ùģ ÛĮÙĦ",
      "f o",
      "7 17",
      "10 57",
      "80 4",
      "ÙĪÙĤ Ø§ÛĮØ¹",
      "Ùģ Ø§ÙĨ",
      "65 1",
      "Û· Û°",
      "Ú© Ùħ",
      "20 3",
      "Ø± Ø²",
      "Ø´ Ú¯Ø±ÛĮ",
      "Ø¬ Ø§Ø¯Ùĩ",
      "12 27",
      "Ø± Ø§Ùĩ",
      "ÙĬØ± Ø¬",
      "10 42",
      "Ùĩ ÙĪ",
      "ĠØ® ÙĪØ¯",
      "ĠØ§ ÚĨ",
      "ÛĮØ´ÛĮ Ú¯Ø§ÙĨ",
      "ĠØŃ Ø³ÙĨ",
      "ĠÙħ ÛĮØ±",
      "ĠØ§Ùģ ØºØ§ÙĨØ³ØªØ§ÙĨ",
      "Ġ b",
      "Ø§ Øº",
      "ĠØ§ÛĮ ÙĨ",
      "ĠØ§ Ø¨Ø±",
      "29 2",
      "10 88",
      "ĠÙĨ ÙĬÙĪ",
      "Ø±Ø¨ Ø³ØªØ§ÙĨ",
      "77 2",
      "Ø§Ø¯ ÙĬ",
      "Û´ Û°",
      "Ùĥ Ø±ÙĬ",
      "ÙĨØ§ØŃ ÙĬÙĩ",
      "10 49",
      "ĠØ¯ Ùħ",
      "Ø· ÛĮ",
      "Ø¨ Ø±ÙĪ",
      "00 6",
      "Ø°Ø±Ø¨ Ø§ÛĮ",
      "U n",
      "Ġ Ø§Ø±Ø¯",
      "ØªØ± ÙĬ",
      "a y",
      "ĠÙĦ ÙĬ",
      "12 28",
      "ÙĬÙĨ Ø§",
      "ĠØ¯ Ø³",
      "Û² Û²",
      "Ø§Ø´ Øª",
      "ĠØ§ÛĮ Ø§ÙĦØª",
      "ĠØ¹ Ø¨Ø¯Ø§ÙĦ",
      "ĠÙģ ÙĪØ±",
      "ĠÙħØ§Ø± Ø³",
      "89 5",
      "ĠÙģ Ø±ÙĩÙĨÚ¯",
      "ĠØª Ø§ÛĮ",
      "ÙĬØ² ÙĬ",
      "ĠÚ© Ø§ÙĦ",
      "ĠØ¢ÙĦ Ø§Ø¨Ø§ÙħØ§",
      "12 30",
      "67 3",
      "Ø³ØªØ§ÙĨ ÙĬ",
      "Ø¦ ÙĪÙĨ",
      "10 08",
      "ĠØ³ Ø±Ø®",
      "7 19",
      "ĠØ§Ùħ Ø±ÛĮ",
      "ĠÚ© ÙĪÙĩ",
      "ÙĦ Ø§ÙĨØ¯",
      "ĠØ§Ø± ÙħÙĨØ³ØªØ§ÙĨ",
      "Ù¾ ÙĪÙĦ",
      "Ùħ Ø§Ø³",
      "Ø¯Ø± Ø®ÙĪØ§Ø³Øª",
      "ĠØ§ØŃ ÙħØ¯",
      "an g",
      "Ø§Øª Ø§",
      "62 4",
      "ØŃ Ø±",
      "ĠØ§Ø³ Ø±Ø§Ø¦",
      "ĠØ® Ø±",
      "79 3",
      "ĠØ¨ Ø§Ø¨",
      "58 4",
      "Ø¬ Ø²ÛĮØ±Ùĩ",
      "10 37",
      "29 3",
      "Ù¾Øª Ø§ÙħØ¨Ø±",
      "ĠØ¢ÙħØ±ÛĮÚ© Ø§ÛĮÛĮ",
      "Ø´ ÙĤ",
      "90 5",
      "ĠØ® Ø±Ø¯",
      "66 3",
      "8 16",
      "11 42",
      "ĠÙħ ÛĮØ´ÛĮÚ¯Ø§ÙĨ",
      "80 3",
      "39 58",
      "Ø³ Ø³Ùĩ",
      "ÚĨ ÙĬ",
      "8 56",
      "ÙĪÛĮ ÚĨ",
      "7 49",
      "ĠÚĺ Ø§ÙĨ",
      "Ø¬ Ø´ÙĨÙĪØ§Ø±Ùĩ",
      "Ø§Ùģ Øª",
      "90 2",
      "Ø¯Ø§Ø± Ø§ÙĨ",
      "10 12",
      "99 5",
      "Ø² Ø§ÙĨ",
      "Ú© Ø§Ùħ",
      "ÛĮÚ© Ø§",
      "Úĺ Ø§ÙĨØª",
      "ÛĮÙĨ ÛĮØ§",
      "ĠÙĪ ÙĬ",
      "Ø±ÙĪ Ø§ÙĨ",
      "Ø§Ø¦ ÙĪ",
      "89 2",
      "7 26",
      "ĠØ§ Ø¹",
      "ÛĮÙĦ ÙĪØ§ÙĨ",
      "ĠØªÛĮ Ùħ",
      "6 69",
      "12 40",
      "11 39",
      "u t",
      "id ae",
      "66 1",
      "89 3",
      "56 4",
      "ĠØ§ ÙĪÚ©",
      "12 37",
      "ĠØ¹ Ùħ",
      "Ú¯ÙĪ Ø¦",
      "50 1",
      "Ø§ÙĦØ¯ ÛĮÙĨ",
      "ĠÙĩ ÙĨØ±",
      "ĠØ³ ÙĨØª",
      "10 69",
      "8 30",
      "Ø± Ø¶Ø§",
      "7 14",
      "80 5",
      "ĠØ °",
      "97 2",
      "10 38",
      "ĠØ¬ ÙĪ",
      "Ùģ Ø±ÙĩÙĨÚ¯",
      "od e",
      "Ø³ Ú©ÙĪ",
      "Ø¹ ÙĦ",
      "8 32",
      "8 57",
      "Ø³ Ø§Ø²ÛĮ",
      "ĠÛ²Û°Û° Û°",
      "6 78",
      "Ø® Ø·",
      "ĠÛ²Û° Û²Û°",
      "10 19",
      "11 48",
      "ĠØ§ Ú©",
      "90 1",
      "88 5",
      "ĠØ³ Ø¹",
      "ÚĨØ±Ø® Ùĩ",
      "d ata",
      "10 36",
      "ĠØ±ÙĪ Ø²",
      "Ġ ÙĬÙĥ",
      "Ø² Ø¯",
      "ĠÙĩÙĪ Ø§ÛĮÛĮ",
      "ÚĨ Ø´ÙħÙĩ",
      "Ø§Ø± ÙĨ",
      "Ú¯ Ø³",
      "ĠØ «",
      "29 1",
      "ÛĮÙĦÙĪØ§ÙĨ ÛĮØ§",
      "Ø§Ø¨ ÙĪØ±",
      "ĠØ³ Ù¾ØªØ§ÙħØ¨Ø±",
      "Ø¢ ÙĨØ¯",
      "Ø§Ø¬ Ø¹Ùĩ",
      "8 12",
      "ĠØ¢ Ø²Ø§Ø¯",
      "11 38",
      "Û² Û³",
      "Ø²ÛĮ Ø±",
      "ĠØ§ÙĦÙħÙ¾ ÙĬÙĥ",
      "fo box",
      "Ø³ÙĬ Ø¯",
      "ÙħÛĮ Øª",
      "ĠØ¯Ø± Ùĩ",
      "ÛĮÙĦ ÙĨØ¯",
      "ÙĪÙĦ ÙĬ",
      "10 15",
      "o w",
      "Ø® ÙĪØ¯",
      "ĠÚ© ÙĪØª",
      "12 18",
      "ĠÙĪØ§Ø´ ÛĮÙĨÚ¯ØªÙĨ",
      "ĠØ¯Ø³ Ø§ÙħØ¨Ø±",
      "87 4",
      "Ø Ł",
      "9 57",
      "Ø°Ø±Ø¨Ø§ÛĮ Ø¬Ø§ÙĨ",
      "ÙĨÛĮ Ø³",
      "19 78",
      "12 32",
      "ĠÙĨ ÙĬ",
      "Ú©Ø§Ø± Ø¨Ø±",
      "Ùħ ÙĤ",
      "Ù¾ Ø§Ø±",
      "Ø® ÙĦ",
      "Ø§ÚĨ ÙĪØ³Øª",
      "Ø§ÛĮ Ø³ØªÚ¯Ø§Ùĩ",
      "ĠÚ¯ ÙĪØ±",
      "ĠÚ© ÙĪØ±",
      "Ø§Ùĩ ÙĪ",
      "Ġ 18",
      "Ø§ÚĨ Ùĩ",
      "Û² Û´",
      "Ø¬ ÙħÙĩÙĪØ±ÛĮ",
      "12 36",
      "Ġ in",
      "Ú© ÛĮÙĨ",
      "ĠÙĪ ÛĮÙĦ",
      "12 50",
      "8 50",
      "ĠÙħÛĮ Ø²",
      "ĠØ± Ø§ÛĮ",
      "9 55",
      "8 19",
      "J P",
      "66 4",
      "Ø§ÙĩÛĮ Ùħ",
      "77 1",
      "77 3",
      "62 3",
      "99 1",
      "9 38",
      "Ú© Ø§ÙĦ",
      "Ú¯ ÙĪÙĨ",
      "Ùģ Ø§Ø¬Ø¹Ùĩ",
      "97 5",
      "ĠØ¨ Ø³",
      "10 20",
      "ĠÙĪ Ø§ÙĦ",
      "Ø±ÙĪ Úĺ",
      "8 35",
      "Ø§Ùħ ÛĮÙĨ",
      "Ú© ÙĪØ±",
      "ĠÙĪ Ø§ÙĤ",
      "Ø§Øª Ø³",
      "08 6",
      "10 50",
      "10 27",
      "ÛĮÙĦÛĮ Ø§Ùħ",
      "7 42",
      "Ø¯Ø§ÙĨ Ø´",
      "Ø§Ø¯ Ø´",
      "Ġ 3",
      "12 00",
      "ĠØ¨ Ø§ÙĦØ§",
      "2 43",
      "ĠÙ¾ ÙĪØ±",
      "Ø¹ Ùħ",
      "09 5",
      "ĠØ® ÙĦ",
      "ĠÙģÙĦÙĪØ± ÛĮØ¯Ø§",
      "ÙĦØ§ ÙĤ",
      "ĠØ¢ Ø³ÛĮ",
      "78 4",
      "ĠÙĨÙĪ Ø§ÙħØ¨Ø±",
      "ĠØ³ Ùĩ",
      "Ø¬Ø± Ø³ÛĮ",
      "a p",
      "ĠØ¨ ÙĪØ±",
      "Ø¯ Ø¦",
      "Ø² ÙĦ",
      "Ù¾ ÛĮÙĨ",
      "10 30",
      "In fobox",
      "ĠØ ¶",
      "6 59",
      "ĠÙ¾ Ø§ÛĮ",
      "Ø§ÛĮ Ø§ÙĦØª",
      "10 17",
      "22 2",
      "ĠØµ ÙĨ",
      "8 99",
      "Øª ÙĪÙħ",
      "ĠØ´ ÛĮØ±",
      "ĠÙħØ¬ ÙĦØ³",
      "Ø´ Ø§",
      "ĠØ³ Ø§Ùħ",
      "a c",
      "7 35",
      "ĠØ§Ùħ Ù¾Ø±Ø§ØªÙĪØ±ÛĮ",
      "6 60",
      "ĠÙ¾ Ø§Ú©",
      "Ùģ Ø±ÙĬ",
      ") /",
      "6 79",
      "Ø¢Ø± Ø§ÙħÚ¯Ø§Ùĩ",
      "ĠÚĺÙĪØ¦ ÙĨ",
      "Ø§Ø¨ ÙĦ",
      "11 40",
      "Ġ 12",
      "ĠØ¯Ø± ÛĮØ§ÛĮÛĮ",
      "Ø±ÙĪ ÙĩØ§ÛĮ",
      "ĠÚĺÙĪØ¦ ÛĮÙĩ",
      "Ø³ ÙĨØª",
      "ÙĪ ÛĮÙĨ",
      "Ø§Ø³ ÙĦØ§Ùħ",
      "ĠÙĦÙĩ Ø³ØªØ§ÙĨ",
      "a b",
      "Ùħ Ø´",
      "11 36",
      "87 1",
      "Ø¨ ÙĦÛĮ",
      "JP G",
      "ĠØ¦ ÛĮ",
      "Ø´Øª Ø§Ø±",
      "9 19",
      "Ġ ÙĬÙĪ",
      "ĠØ´Ùħ Ø§ÙĦÙĬ",
      "12 69",
      "Û² Ûµ",
      "ĠÛĮÚ© Ùħ",
      "ĠØ³ÛĮ Ø§Ùĩ",
      "ĠÛ²Û°Û±Û ²",
      "7 28",
      "Ø§Ùĩ ÙħØ§",
      "Ùĥ ÙĪÙĩ",
      "18 99",
      "10 78",
      "Ø¨ ÛĮÙĦ",
      "Ú© ÙĪÙħ",
      "76 3",
      "7 16",
      "12 60",
      "Ø´ Ø¨",
      "12 19",
      "8 80",
      "ĠØ¢ ÙħØ±ÙĬ",
      "ÚĨ Ø§Ø±",
      "ĠÙģ ÙĪØ±ÛĮÙĩ",
      "Ú¯Ø§ÙĨ ÛĮ",
      "11 16",
      "Ø§ÙĪ Ùĩ",
      "ĠÚĺØ§ÙĨ ÙĪÛĮÙĩ",
      "ĠÚ© ÙĦÛĮ",
      "12 20",
      "ĠÙħ ÛĮÙĨ",
      "Ø¬ Øª",
      "Ø§Ú© ÙĪ",
      "Ø¨ Ø§ÙĨÛĮ",
      "88 1",
      "7 30",
      "ĠØ¬ÙĨÙĪ Ø¨ÙĬ",
      "Ġ O",
      "ĠÙħÙĦ Øª",
      "Ú© Ø§ÛĮ",
      "Ġ Ø³Øª",
      "Ø® ØªØ±",
      "ĠØ± Ø§",
      "Ø³ ÙĪØ±",
      "88 3",
      "86 4",
      "ÙĦØ§ Øº",
      "8 60",
      "90 4",
      "al l",
      "Ø±ÙĪ ÙĬ",
      "ØªØ± Ø§",
      "ĠÙħ Ø³Øª",
      "Ġc ode",
      "ĠÛ²Û°Û±Û ¶",
      "ÛĮØ§ÙĨ Ø§",
      "Ø§Ø¨Ø± Øª",
      "ĠØ´ÙĪØ± ÙĪÛĮ",
      "11 30",
      "u b",
      "ĠØ±ÙĪ ÛĮ",
      "ĠÚ© Ø±ÙĪ",
      "12 80",
      "Ùħ ÛĮØ¯",
      "ÙĨÙĪÛĮØ³ ÙĨØ¯Ú¯Ø§ÙĨ",
      "Ù¾ Ø§Ø±Ú©",
      "Ù¾ Ø§ÙĦ",
      "ÙĤ ÙĪÙĤ",
      "07 5",
      "ØµÛĮ Ùģ",
      "12 46",
      "25 3",
      "6 58",
      "ÙĦÛĮ Ú¯",
      "ĠÙĩ Ùħ",
      "ĠÙĤ ÙĦÙħ",
      "Ø§ÙĨÛĮ Ø§ÙĨ",
      "Ø§ÛĮ Ø±Ø§ÙĨ",
      "ĠÚĨ ÙĩØ§Ø±",
      "10 29",
      "Û² Û¶",
      "45 27",
      "ĠØ¬ÙĨÙĪ Ø¨",
      "89 4",
      "9 48",
      "98 5",
      "ĠÙħ Ø§Ø±Øª",
      "ĠÙĥ ÙĨ",
      "ĠØ§ÙħØ±ÛĮ Ú©Ø§",
      "ĠÙħ Ø´",
      "Ø³ ÙĪØªØ§",
      "ÙĤ Ø±",
      "ĠØªÙĪØ³ Ø·",
      "i m",
      "Ú©Øª Ø¨Ø§ÙĦ",
      "12 42",
      "Ù¾ Ø³",
      "ĠØºØ±Ø¨ ÙĬ",
      "32 39",
      "8 79",
      "8 59",
      "10 40",
      "ĠØ¨ ÙĬÙĨ",
      "ĠØ§ÛĮØ± ÙĦÙĨØ¯",
      "ĠØ§ÛĮ ÙĨØ¯",
      "46 29",
      "ÛĮØ§ Ø²",
      "98 1",
      "ĠØ§ÙĦ ÙħÙĦ",
      "ĠÙĪ ÙĦØ²",
      "9 16",
      "Ġ Û¹",
      "ĠÙ¾ÙĨØ³ ÛĮÙĦÙĪØ§ÙĨÛĮØ§",
      "Ø³Øª ÛĮÙĨ",
      "9 70",
      "Ġ 15",
      "98 3",
      "ĠØªÙĪ ØµÛĮÙģ",
      "ĠÙħØ§Ø³ Ø§ÚĨÙĪØ³Øª",
      "6 70",
      "ĠØ® ÙĪ",
      "ÙħØ¯ Ø§Ø±Ø§ÙĨ",
      "ÙĬÙĨ ÙĪ",
      "ĠØ¹ÙĦÙĬ Ø§",
      "Ú¯ ÙĦÛĮ",
      "ĠÚ© ÙĪÚĨ",
      "7 67",
      "Ø±ÛĮ Ø¯",
      "11 18",
      "Ø® Ø±Ø¯",
      "5 41",
      "ĠØ³ÙĪØ¦ Ø¯",
      "ØªØµ Ø§Ø¯",
      "Ø³ ÛĮÙĦ",
      "39 59",
      "ÙĤ Ø±Ùĩ",
      "Ø´ÙĩØ± Ú©",
      "ÙħØ§ÙĨ ÙĬ",
      "08 3",
      "ØªØº Ø§ÙĦ",
      "Ø¯Ø± ÙĬ",
      "ĠØ§ÙĨ Ø¯",
      "19 00",
      "ÙħÙĪØª ÙĪØ±",
      "6 52",
      "ĠØ³ ÛĮØ¯",
      "80 2",
      "ĠØª ÙĪØ±",
      "Ø¨ÛĮ Ø§ÙĨ",
      "12 58",
      "Ø³ÛĮ Ø±",
      "34 47",
      "ĠØªØ± Ú©ÛĮÙĩ",
      "10 67",
      "9 50",
      "ĠÛ²Û°Û° Û¸",
      "45 26",
      "9 58",
      "9 59",
      "ĠÙħ ØµØ±",
      "Ø§ÙĦ Ú©Ø³",
      "Ú¯ Ø§Ø±",
      "8 70",
      "Ú© Ø´",
      "ĠØ§ÙĦ ÙĨÙĩØ§Ø±",
      "9 20",
      "ĠÙĨÛĮÙĪ Ø¬Ø±Ø³ÛĮ",
      "9 32",
      "it y",
      "10 66",
      "8 90",
      "87 2",
      "9 15",
      "Ġ 17",
      "97 3",
      "Ø¨ ÙĪØ¯",
      "8 68",
      "7 48",
      "8 46",
      "Ø° Ø¨Ùĩ",
      "Û² Û¸",
      "ÙĪÙĨ Ø³",
      "8 78",
      "r an",
      "ĠØ³Ùģ ÙĦÙĬ",
      "32 00",
      "57 55",
      "Øª Ø¦",
      "ĠØ§Ø³Ø±Ø§Ø¦ ÛĮÙĦ",
      "12 55",
      "ÙĪØ¦ ÙĦ",
      "7 59",
      "Ø¹ Ø¨Ø§Ø³",
      "10 32",
      "ĠØªØ§Ø¨ Ø³ØªØ§ÙĨÙĬ",
      "Ø§Ùĥ ÙĬ",
      "9 36",
      "Øª Ø±ÙĪ",
      "Û² Û±",
      "7 60",
      "88 4",
      "ĠÛ²Û° Û±Û±",
      "32 42",
      "10 06",
      "9 35",
      "ĠÙĪØ§ÙĤ Ø¹",
      "Ø§Ùħ ÙĬ",
      "Ġ 16",
      "Ø´ ÙĨØ§",
      "ĠÙĩ Ø²Ø§Ø±Ùĩ",
      "ĠÚ¯ ÛĮ",
      "Û² Û·",
      "ĠØ§ Ú©Øª",
      "e st",
      "ĠÚ¯Ø±Ø¯ Ø´Ú¯Ø±ÛĮ",
      "10 86",
      "ĠØ¹ Ø±Ø§ÙĤ",
      "Ø±Ø§Ø¯ ÙĪ",
      "10 18",
      "12 79",
      "Ø¯ÛĮ Ø¯",
      "10 45",
      "Ùĩ Ø§ÙĬ",
      "6 44",
      "t er",
      "ÙĪ Ø§ÛĮ",
      "7 46",
      "Ø´Ùĩ Ø¯",
      "Ú¯ÙĪØ± Ø³ØªØ§ÙĨ",
      "Ú©ÙĨ ÙĨØ¯Ú¯Ø§ÙĨ",
      "39 55",
      "12 68",
      "ĠÛ²Û°Û±Û ´",
      "10 35",
      "10 46",
      "Ġ ÙĪÙĨ",
      "12 70",
      "ĠØ¨ Ø§ÙĨ",
      "ÙĨÚ¯ Ø§Ø±Ùĩ",
      "Ø¨Ø± ÙĬ",
      "Ø¨Ø± ÙĨØ§ÙħÙĩ",
      "e a",
      "Øª Ùħ",
      "9 18",
      "ÛĮÙĦ ÙĪ"
    ]
  }
}